<unk>	0
<s>	0
</s>	0
,	-3.28468
▁và	-4.57453
▁của	-4.58781
.	-4.7088
▁có	-4.73152
▁là	-4.87849
▁cho	-5.01489
▁trong	-5.0618
▁các	-5.06625
▁được	-5.07657
▁không	-5.0782
▁với	-5.10011
▁người	-5.13514
▁một	-5.21764
▁đã	-5.2327
▁	-5.35733
▁khi	-5.43806
▁ở	-5.47633
▁này	-5.50541
▁để	-5.52176
▁những	-5.57376
▁công	-5.67221
▁ra	-5.67619
▁sẽ	-5.71088
▁thể	-5.71424
▁tại	-5.72823
▁đến	-5.74227
▁(	-5.74334
▁về	-5.74369
▁vào	-5.76163
▁từ	-5.77464
▁bị	-5.79331
▁cũng	-5.79944
▁đó	-5.8262
▁nhiều	-5.8776
▁trên	-5.88242
▁năm	-5.88436
)	-5.91675
▁đầu	-5.92196
▁"	-5.93203
▁như	-5.93889
▁lại	-5.97173
▁phải	-5.98301
▁làm	-6.001
▁nhà	-6.0109
▁hiện	-6.02481
▁sự	-6.03763
▁số	-6.03789
▁ông	-6.03902
▁việc	-6.03919
▁đồng	-6.0527
▁tôi	-6.07379
▁ngày	-6.11114
▁động	-6.13076
▁chỉ	-6.13742
▁quan	-6.14498
▁định	-6.15241
▁gia	-6.15258
:	-6.163
▁thành	-6.18003
▁nước	-6.18025
▁hơn	-6.18512
▁nhân	-6.19208
▁Nam	-6.19805
▁sau	-6.19977
n	-6.23148
▁nhất	-6.24627
▁“	-6.24703
▁đang	-6.25638
▁hàng	-6.25799
▁Quốc	-6.27183
▁-	-6.27902
▁nhưng	-6.29898
▁Việt	-6.30353
▁trước	-6.32048
▁còn	-6.32107
▁biết	-6.32273
▁chính	-6.32858
▁Mỹ	-6.33253
▁xe	-6.3345
▁thủ	-6.34523
▁đi	-6.34653
▁điều	-6.3559
▁cơ	-6.36189
▁mới	-6.3748
"	-6.38058
▁qua	-6.38869
▁thời	-6.39335
▁nhận	-6.40476
▁thì	-6.42432
▁mà	-6.43212
▁viên	-6.4351
▁đội	-6.43572
▁rất	-6.43671
▁2	-6.43986
ng	-6.44297
i	-6.44701
▁giá	-6.45348
▁Trung	-6.45572
▁thông	-6.46864
▁hành	-6.47481
▁theo	-6.47756
▁cùng	-6.4815
▁thế	-6.48562
▁nói	-6.48768
▁cầu	-6.50645
▁hợp	-6.51013
▁đối	-6.51157
▁cách	-6.52515
▁trường	-6.52703
▁phát	-6.53912
▁con	-6.54812
▁anh	-6.55157
▁vì	-6.55415
▁cả	-6.55584
▁tiếp	-6.56557
▁lên	-6.56907
▁vụ	-6.58119
▁tin	-6.58494
▁chức	-6.58568
▁kết	-6.60208
▁tế	-6.60237
▁hình	-6.60395
▁mình	-6.60631
▁nên	-6.60918
▁học	-6.6133
▁giải	-6.62278
▁đấu	-6.62438
▁điểm	-6.62595
▁trận	-6.63204
▁lý	-6.63615
▁cao	-6.63661
”	-6.64986
▁thực	-6.65125
▁vẫn	-6.65251
▁nay	-6.65606
▁1	-6.66446
▁hai	-6.66581
▁dụng	-6.66987
▁tình	-6.67618
▁tháng	-6.67707
▁bộ	-6.67748
▁tiền	-6.6789
▁báo	-6.68474
▁do	-6.68542
▁cuộc	-6.68909
-	-6.69042
▁tới	-6.69511
▁rằng	-6.70033
▁dân	-6.71595
▁xuất	-6.71791
▁bạn	-6.72182
▁đây	-6.72628
▁sinh	-6.72657
▁khác	-6.73528
▁hội	-6.74142
▁dịch	-6.74594
▁họ	-6.7532
▁diễn	-6.76129
▁thống	-6.76717
▁chủ	-6.76737
▁3	-6.76951
▁bệnh	-6.79242
▁dự	-6.80192
▁bóng	-6.80269
▁hay	-6.80865
▁trình	-6.80976
▁giới	-6.81483
▁năng	-6.81625
t	-6.82212
▁lớn	-6.83001
▁cấp	-6.842
▁chiến	-6.8457
▁lực	-6.84664
▁triệu	-6.8502
▁an	-6.85188
m	-6.85306
▁sản	-6.85333
▁lần	-6.8591
▁thấy	-6.85926
▁nhiên	-6.8714
▁toàn	-6.87499
▁Anh	-6.87617
▁tăng	-6.8821
▁quốc	-6.8826
▁Trong	-6.89487
▁đường	-6.89834
▁đề	-6.90983
▁đạo	-6.91769
▁tài	-6.92632
▁chưa	-6.93763
▁phòng	-6.94411
▁tuổi	-6.94465
▁khách	-6.94651
▁án	-6.94918
▁bản	-6.94958
▁Công	-6.95767
▁tự	-6.95837
y	-6.96317
▁mặt	-6.9667
▁trở	-6.97492
▁quyết	-6.97879
▁tư	-6.98401
▁nào	-6.98743
▁cần	-6.98998
▁chúng	-6.99281
▁bán	-6.99351
▁lượng	-6.99393
▁thi	-6.99498
▁độ	-6.9995
▁sĩ	-7.00051
▁cô	-7.00137
c	-7.00515
▁tập	-7.00516
▁tâm	-7.00865
▁gian	-7.01604
▁liên	-7.01643
▁bằng	-7.02089
▁ảnh	-7.02207
▁tính	-7.02848
▁sân	-7.03082
▁ý	-7.0366
▁đưa	-7.03728
▁Hà	-7.04312
▁nghiệp	-7.04478
▁Theo	-7.04615
▁tác	-7.04979
▁thường	-7.05124
▁kinh	-7.06087
▁quá	-7.0632
▁giờ	-7.06389
▁4	-7.06416
▁khiến	-7.06753
▁trọng	-7.0681
▁đại	-7.07253
▁Bộ	-7.07482
▁gần	-7.07888
▁thắng	-7.08176
▁sử	-7.08672
▁vị	-7.08769
▁5	-7.08863
▁quả	-7.08971
▁tục	-7.09388
▁trang	-7.09686
▁bố	-7.1047
▁khu	-7.10538
▁thứ	-7.10761
▁tra	-7.11688
▁bất	-7.11965
▁thương	-7.13407
▁mạnh	-7.13948
▁yêu	-7.13988
▁phần	-7.14015
▁TP	-7.14226
",	-7.14262
▁bảo	-7.14949
▁hệ	-7.15953
▁tạo	-7.16647
▁cảnh	-7.16664
▁máy	-7.17621
▁quyền	-7.1797
▁pháp	-7.18691
▁cảm	-7.18825
▁vừa	-7.18976
▁ca	-7.19108
▁quân	-7.19488
▁bàn	-7.19602
▁đá	-7.19733
▁trung	-7.19882
▁Tuy	-7.20205
▁giao	-7.20587
▁đều	-7.20826
▁Nguyễn	-7.20865
▁bắt	-7.20886
▁cáo	-7.21017
▁vậy	-7.21337
▁giúp	-7.21423
▁dẫn	-7.21536
▁doanh	-7.21884
▁thị	-7.2201
▁gây	-7.22756
▁tốt	-7.2317
▁ăn	-7.23307
▁tỷ	-7.23455
▁từng	-7.2356
▁thu	-7.23604
▁tay	-7.23687
▁ty	-7.24073
▁phương	-7.245
▁muốn	-7.24519
▁sát	-7.25823
▁thức	-7.2588
▁giảm	-7.25942
▁thêm	-7.25952
▁tổ	-7.2614
́	-7.26205
▁hiệu	-7.26386
▁triển	-7.26469
▁tham	-7.26529
▁trị	-7.2661
▁mua	-7.26755
▁gì	-7.27031
▁HLV	-7.27308
u	-7.27351
▁đánh	-7.27526
▁ta	-7.27649
▁chơi	-7.27723
▁trưởng	-7.28108
▁bay	-7.28433
;	-7.28487
▁điện	-7.30521
▁chuyển	-7.30969
▁khoảng	-7.3098
▁vệ	-7.3144
▁U	-7.31751
▁bà	-7.3192
▁quy	-7.32023
▁khó	-7.32237
▁tỉnh	-7.3231
▁tiêu	-7.32395
▁thiết	-7.32476
▁tên	-7.33645
▁vực	-7.33652
▁nếu	-7.33738
▁sống	-7.34387
▁ngoài	-7.34501
▁hôm	-7.34657
▁sáng	-7.34705
▁nhau	-7.3477
▁em	-7.34913
▁Nội	-7.34997
▁xã	-7.35226
▁biệt	-7.35228
▁đất	-7.35601
▁kỳ	-7.36084
▁địa	-7.36345
▁tuyển	-7.3649
▁loại	-7.36505
▁sở	-7.36847
▁tiên	-7.36985
▁vấn	-7.37443
▁Tổng	-7.37647
▁hoạt	-7.37704
▁sao	-7.3772
▁nữ	-7.38322
▁lời	-7.3851
▁gặp	-7.38715
▁giữa	-7.38861
▁trẻ	-7.38972
▁bình	-7.39414
▁sức	-7.39773
▁hoặc	-7.40486
▁nhiệm	-7.40863
▁vòng	-7.41005
▁10	-7.41357
▁Các	-7.41931
▁thay	-7.42175
▁đình	-7.42452
▁Văn	-7.42708
▁chiếc	-7.42743
▁mang	-7.43204
▁đổi	-7.43368
▁ứng	-7.43397
▁6	-7.43397
▁kiểm	-7.43821
▁tích	-7.43982
▁mức	-7.44027
▁Trump	-7.44188
▁Sau	-7.44392
▁khai	-7.44705
▁bên	-7.44817
▁tranh	-7.44832
▁rồi	-7.45055
▁kiến	-7.45126
▁Bình	-7.45164
▁hoàn	-7.45203
),	-7.45472
▁bỏ	-7.45476
▁tìm	-7.45484
▁chế	-7.45825
▁phục	-7.45911
▁phạm	-7.46806
▁vô	-7.46897
▁dùng	-7.4718
▁nhập	-7.4723
/	-7.47263
▁vi	-7.47308
▁thân	-7.47383
▁xem	-7.47595
̣	-7.47758
▁tiếng	-7.48455
▁mọi	-7.48728
▁cứu	-7.48862
▁chung	-7.49096
▁Ông	-7.49271
▁kế	-7.49608
▁cuối	-7.49624
▁lập	-7.50011
s	-7.50278
▁hết	-7.50393
▁đơn	-7.51024
▁nghiệm	-7.52461
▁sách	-7.52811
▁nghị	-7.5289
▁chia	-7.53064
o	-7.53079
▁phố	-7.53103
▁chuyên	-7.53163
▁chất	-7.5317
▁diện	-7.53477
▁luật	-7.53627
▁Thanh	-7.53836
▁lúc	-7.53838
h	-7.53872
▁nơi	-7.55392
▁Một	-7.55505
▁xử	-7.55893
▁phim	-7.56205
▁bao	-7.5641
▁đặc	-7.56583
▁giữ	-7.57557
▁trí	-7.57701
▁xét	-7.57738
▁chọn	-7.58751
▁chứng	-7.58919
▁Ảnh	-7.59068
▁tử	-7.59075
▁viện	-7.59232
▁ban	-7.59296
▁xác	-7.59557
▁mẹ	-7.60744
▁Tôi	-7.60849
▁USD	-7.6089
▁mùa	-7.61176
▁danh	-7.61548
▁tổng	-7.61761
▁trợ	-7.61944
▁phẩm	-7.62029
▁chuyện	-7.62174
▁thuộc	-7.62187
▁T	-7.62362
▁chí	-7.62854
▁phụ	-7.62936
▁Đức	-7.6297
▁khả	-7.63002
▁giả	-7.63076
▁dài	-7.63493
▁tượng	-7.63717
'	-7.64002
▁phủ	-7.64403
▁kiện	-7.64423
▁chồng	-7.64459
▁truyền	-7.64589
▁hộ	-7.64711
▁ghi	-7.64718
...	-7.65011
▁hóa	-7.65257
▁mạng	-7.65393
▁tịch	-7.65469
▁cá	-7.65571
p	-7.65708
▁7	-7.65747
▁Covid	-7.65971
▁lịch	-7.66034
▁mắt	-7.66081
▁trả	-7.66724
▁ngay	-7.6681
?	-7.6687
▁tuần	-7.67168
▁đoàn	-7.67171
▁so	-7.67219
▁dựng	-7.67294
▁Nga	-7.67862
▁biểu	-7.68005
▁đẹp	-7.68722
▁ấy	-7.68892
▁đủ	-7.69021
▁8	-7.69197
▁cố	-7.69209
▁mở	-7.69413
▁mất	-7.69785
&#224;	-7.69807
▁nhiễm	-7.69902
▁biến	-7.71035
▁hạn	-7.71113
▁nữa	-7.71117
▁hồi	-7.71152
a	-7.71195
▁tiết	-7.71497
▁mẫu	-7.71627
▁kể	-7.72115
▁lợi	-7.72579
▁chị	-7.7283
▁lãnh	-7.73139
▁C	-7.73437
▁luôn	-7.73488
▁thích	-7.7367
▁tiến	-7.73859
▁sang	-7.74041
▁dù	-7.74119
▁chi	-7.74187
▁gọi	-7.74216
▁hưởng	-7.74332
▁vợ	-7.74374
▁luận	-7.74601
▁chống	-7.74762
▁gái	-7.74767
▁xây	-7.74854
▁đặt	-7.75113
̀	-7.75522
-19	-7.75646
▁cử	-7.76102
▁liệu	-7.76219
▁cửa	-7.76278
▁rõ	-7.76523
▁Nhà	-7.76713
▁khẩu	-7.76735
▁mỗi	-7.76749
▁bởi	-7.76805
▁nghệ	-7.76838
▁Tiên	-7.77214
▁ít	-7.77316
”,	-7.77948
▁M	-7.78275
▁ai	-7.78441
▁tương	-7.79106
▁9	-7.79433
▁nhóm	-7.79638
▁cái	-7.80101
▁Hải	-7.80134
▁vọng	-7.80372
▁'	-7.80705
▁hướng	-7.80883
▁phân	-7.81084
▁Đông	-7.81132
▁áp	-7.81302
▁ba	-7.81426
▁Triều	-7.81456
▁cổ	-7.81491
▁nổi	-7.81748
▁văn	-7.81932
▁chuẩn	-7.82011
▁Thái	-7.82032
▁sẻ	-7.821
▁nội	-7.82235
▁tối	-7.82326
▁tàu	-7.82329
▁nguyên	-7.82483
▁vật	-7.82487
▁khí	-7.82931
▁thư	-7.83424
▁Chính	-7.83903
▁S	-7.84387
▁VN	-7.84495
▁Nhật	-7.84819
▁nhỏ	-7.85317
▁cứ	-7.85348
▁Nhưng	-7.8559
▁Khi	-7.85708
▁trực	-7.85894
▁đáng	-7.8607
▁phí	-7.86606
▁Bắc	-7.86713
▁tấn	-7.87241
▁nó	-7.87244
▁trò	-7.87413
▁phía	-7.87942
▁tướng	-7.88035
▁châu	-7.88182
▁Nếu	-7.88244
▁Ban	-7.88413
▁ký	-7.88469
▁tất	-7.88482
▁đóng	-7.88488
▁bài	-7.88902
▁đoạn	-7.89243
▁du	-7.89318
▁minh	-7.89425
▁thuật	-7.89745
▁Lan	-7.89927
▁mục	-7.90209
▁nhanh	-7.90464
▁thanh	-7.90591
▁xuống	-7.90782
▁V	-7.90881
▁Hoàng	-7.90922
▁Những	-7.91423
▁y	-7.91478
▁phong	-7.91709
▁H	-7.91874
▁cạnh	-7.91957
▁Chủ	-7.92395
▁gồm	-7.92505
▁đúng	-7.92641
▁khá	-7.92845
▁nghĩ	-7.92856
▁thật	-7.93094
▁hỏi	-7.93251
▁tố	-7.93273
▁xảy	-7.93324
▁phản	-7.9352
▁chân	-7.93678
▁giáo	-7.93758
▁vùng	-7.93988
▁nguy	-7.94061
▁quản	-7.9409
▁đạt	-7.94168
▁nạn	-7.9457
▁biển	-7.94918
▁yếu	-7.95124
▁lấy	-7.95767
▁hòa	-7.95882
▁phép	-7.95942
▁HCM	-7.96434
▁hậu	-7.9651
▁giám	-7.96636
▁hạng	-7.96851
▁Trước	-7.96872
▁Minh	-7.96984
▁khỏi	-7.97002
▁trạng	-7.97241
▁20	-7.97253
▁Đại	-7.97268
▁phút	-7.97338
▁đốc	-7.97391
▁Hàn	-7.97667
nh	-7.97938
▁hoạch	-7.98016
▁nhằm	-7.98052
▁Người	-7.98107
▁Đây	-7.98615
▁lo	-7.98866
&#225;	-7.99207
▁B	-8.00368
▁tinh	-8.00492
▁phạt	-8.00596
▁ô	-8.00624
T	-8.00758
▁đời	-8.008
▁càng	-8.01034
▁hữu	-8.01303
▁dưới	-8.01317
▁cộng	-8.01373
▁nguồn	-8.01461
▁màu	-8.01493
▁12	-8.01646
▁chương	-8.01722
▁vận	-8.01775
▁đồ	-8.01948
▁A	-8.01957
▁bảng	-8.02192
▁tuyên	-8.02338
▁ly	-8.02374
▁trách	-8.02679
▁Thành	-8.02911
g	-8.03306
▁đăng	-8.03484
▁đảo	-8.03729
▁đảm	-8.03866
▁Thủ	-8.04084
▁đứng	-8.04355
▁19	-8.04395
▁Dương	-8.04648
▁000	-8.04739
▁ngờ	-8.04834
▁môn	-8.04989
▁câu	-8.05329
▁bé	-8.05443
▁khăn	-8.05467
▁Không	-8.05562
▁vai	-8.05715
▁vốn	-8.05903
▁chấp	-8.06044
▁sắc	-8.06059
▁bác	-8.06239
▁cung	-8.06841
▁c	-8.07025
▁chạy	-8.07115
▁cực	-8.07235
▁dễ	-8.07511
▁thất	-8.07598
▁giành	-8.07918
▁phiên	-8.07952
▁địch	-8.07983
▁11	-8.08055
▁ngoại	-8.08252
▁An	-8.0842
▁tô	-8.08434
▁trai	-8.08766
▁chiều	-8.08999
▁chịu	-8.09018
▁ngôi	-8.09184
▁riêng	-8.10425
▁vàng	-8.1056
▁lòng	-8.10697
▁đầy	-8.10722
▁ngành	-8.10796
▁kỷ	-8.11395
▁đô	-8.11735
▁trái	-8.11817
▁lộ	-8.12186
▁Tây	-8.12323
▁xúc	-8.12427
▁áo	-8.12457
▁lửa	-8.12684
▁nam	-8.13057
▁Á	-8.13063
▁hỗ	-8.13086
▁đông	-8.13169
▁căn	-8.13232
▁buộc	-8.13249
▁Với	-8.13375
▁rộng	-8.13509
▁Ngoài	-8.13521
▁Lê	-8.13549
▁m	-8.146
▁hiểu	-8.148
▁phá	-8.14923
▁Ngọc	-8.15021
▁Liên	-8.15358
▁soát	-8.15429
▁Bản	-8.15453
▁CLB	-8.15517
▁thiếu	-8.1581
▁nhìn	-8.16098
▁hãng	-8.16179
▁bầu	-8.16273
▁tội	-8.16298
▁nghiêm	-8.16674
▁chết	-8.16843
▁nghỉ	-8.17032
▁thua	-8.1729
▁đêm	-8.17451
▁Thị	-8.17514
▁sư	-8.17715
▁đàn	-8.17718
▁kỹ	-8.17847
▁Sơn	-8.17937
▁dành	-8.18065
▁thử	-8.18264
▁Trần	-8.18388
▁vượt	-8.18458
▁lưu	-8.18491
▁xin	-8.18822
▁nặng	-8.18828
▁khoản	-8.1889
▁bước	-8.18901
▁sớm	-8.19192
▁ngân	-8.19487
▁Kim	-8.19561
▁vài	-8.19959
▁nằm	-8.20208
▁mô	-8.20857
▁nhạc	-8.20945
▁gửi	-8.21515
▁Cup	-8.21853
▁khẳng	-8.22201
▁góp	-8.22412
▁Vũ	-8.22486
▁khán	-8.22517
▁thoại	-8.22633
▁xa	-8.22801
▁Phó	-8.22832
▁khởi	-8.2287
▁thần	-8.22994
e	-8.23384
▁họp	-8.23408
▁đôi	-8.23744
▁30	-8.2387
▁di	-8.24043
▁đa	-8.24252
▁tưởng	-8.24647
▁huyện	-8.24738
▁UBND	-8.25036
G	-8.25471
▁vũ	-8.25487
▁Trường	-8.25783
▁bại	-8.25973
▁Tại	-8.26022
▁sai	-8.26038
▁N	-8.26441
▁chú	-8.26793
▁kích	-8.26889
▁nghi	-8.26891
▁cư	-8.27885
▁l	-8.27946
▁sơ	-8.27956
▁chắc	-8.2835
▁game	-8.28486
▁nền	-8.29036
▁League	-8.2932
̉	-8.29527
▁Có	-8.2953
▁dung	-8.29758
▁thúc	-8.30273
▁duy	-8.30416
M	-8.3063
!	-8.30718
▁nghĩa	-8.30809
▁15	-8.30849
▁buổi	-8.31107
▁kéo	-8.31223
▁phối	-8.31398
▁tải	-8.3168
▁lượt	-8.31863
▁lệ	-8.32153
▁hại	-8.32469
▁độc	-8.32572
&#244;	-8.327
B	-8.33219
▁thấp	-8.33235
▁Quảng	-8.33599
C	-8.33617
▁nghiên	-8.33725
▁vui	-8.33731
ch	-8.33919
▁lâu	-8.34078
▁tỏ	-8.34496
▁mong	-8.34625
▁tuyến	-8.34651
▁Y	-8.34668
▁L	-8.34914
▁phiếu	-8.34985
▁Long	-8.35202
▁hát	-8.35271
▁Đà	-8.35366
▁Tuấn	-8.35864
▁chuyến	-8.35886
▁Đồng	-8.36063
▁loạt	-8.36241
▁lao	-8.36314
Tôi	-8.36408
▁hiểm	-8.36464
▁đỏ	-8.36525
▁tốc	-8.36672
▁khoa	-8.36718
▁thuận	-8.36928
▁hồ	-8.37277
▁luyện	-8.37521
▁thuốc	-8.37596
▁quay	-8.37883
▁Từ	-8.38052
▁khỏe	-8.38131
&#243;	-8.38219
▁Điều	-8.38251
▁ninh	-8.3844
▁âm	-8.38651
▁biên	-8.39428
▁đ	-8.39466
▁mộ	-8.39501
▁suất	-8.39512
▁đâu	-8.39915
▁xếp	-8.40359
▁Pháp	-8.4085
▁dục	-8.409
▁mại	-8.41002
▁cán	-8.41107
▁pha	-8.4148
▁nâng	-8.41526
▁đẩy	-8.41562
▁dòng	-8.41846
▁Xuân	-8.41883
▁lái	-8.42056
▁Vì	-8.42144
l	-8.42279
▁chứ	-8.42421
▁bang	-8.42796
▁nhờ	-8.42935
▁thuế	-8.43035
▁hạ	-8.4323
▁xuyên	-8.43671
▁Hiện	-8.44022
▁tỉ	-8.44263
▁hoa	-8.44336
▁viết	-8.44652
▁23	-8.44659
▁chờ	-8.44738
▁Ngoại	-8.44847
▁16	-8.44924
▁dấu	-8.4511
▁màn	-8.45159
▁G	-8.45387
A	-8.45914
▁tránh	-8.4609
▁Nha	-8.46419
▁vong	-8.46572
▁Kinh	-8.46667
▁thiện	-8.47068
▁tạm	-8.47131
L	-8.47134
▁kiếm	-8.47162
▁Âu	-8.47204
▁quán	-8.47425
▁mối	-8.47686
▁hôn	-8.47736
▁lễ	-8.47853
▁cụ	-8.47996
▁biện	-8.48125
▁18	-8.48361
▁Nhiều	-8.48688
▁thẳng	-8.48827
▁cấm	-8.48882
▁dầu	-8.4889
▁Nẵng	-8.48944
▁phóng	-8.49114
▁Do	-8.49139
▁K	-8.49187
▁toán	-8.49559
▁giai	-8.49827
▁thí	-8.50362
▁F	-8.50417
▁trì	-8.50515
▁Sở	-8.50576
▁hút	-8.50712
▁ủng	-8.50746
▁giống	-8.50758
2	-8.50837
S	-8.50996
▁Quang	-8.51234
▁lỗi	-8.51374
▁Cô	-8.51491
▁D	-8.51644
▁lệnh	-8.51707
▁mắc	-8.52116
▁Man	-8.52118
▁chỗ	-8.52136
▁tức	-8.52163
▁P	-8.52273
▁Ở	-8.52319
▁siêu	-8.53103
▁14	-8.53256
▁đau	-8.53447
▁thái	-8.53657
▁nghe	-8.54089
▁ngồi	-8.54121
▁Chúng	-8.54157
▁phù	-8.5423
▁đua	-8.54371
▁Hội	-8.5439
▁Năm	-8.54557
▁thăm	-8.54612
▁sắp	-8.54665
▁lớp	-8.54821
▁đảng	-8.55286
▁niên	-8.55358
▁bổ	-8.55418
▁vẻ	-8.55512
▁n	-8.55522
▁Linh	-8.55727
▁ngại	-8.55864
▁Họ	-8.56129
▁sẵn	-8.56324
▁ổn	-8.56751
▁Dù	-8.56924
▁cây	-8.5695
▁hạt	-8.57351
▁thưởng	-8.57774
P	-8.57803
▁ấn	-8.57844
▁21	-8.58286
▁lĩnh	-8.58403
▁cũ	-8.58431
▁Hai	-8.58546
▁mặc	-8.58743
▁Real	-8.58747
▁lương	-8.59156
▁thao	-8.59189
▁ủy	-8.59504
▁tai	-8.59516
▁thậm	-8.5963
▁lan	-8.59673
▁cựu	-8.60002
▁Ninh	-8.60046
D	-8.6021
▁chiếm	-8.6059
▁Thế	-8.606
▁đổ	-8.60621
▁rút	-8.60666
▁tầm	-8.60697
▁nhiệt	-8.60775
V	-8.60812
▁ngăn	-8.60913
▁Hồng	-8.60937
▁tòa	-8.60951
▁b	-8.61192
▁quận	-8.61335
▁khúc	-8.61399
▁Hòa	-8.61427
▁v	-8.61464
▁Ngày	-8.61547
▁cầm	-8.61573
▁thẩm	-8.61699
▁Việc	-8.61731
▁quen	-8.62059
▁tiện	-8.6207
▁nóng	-8.62246
▁món	-8.62564
▁huy	-8.62673
▁tái	-8.62895
▁khủng	-8.62907
▁trải	-8.63178
▁Hoa	-8.63231
▁cải	-8.63247
▁trao	-8.63284
▁thôi	-8.63452
▁Chỉ	-8.63528
▁uống	-8.63545
▁chắn	-8.64022
▁chỉnh	-8.64079
▁Giang	-8.64153
▁virus	-8.64182
▁cánh	-8.64277
▁13	-8.64478
▁Phương	-8.64722
▁da	-8.64726
▁thuê	-8.65028
▁môi	-8.65285
▁lục	-8.65321
▁lây	-8.65781
▁World	-8.65816
▁binh	-8.6582
▁cường	-8.66046
▁Phạm	-8.66376
K	-8.66389
▁sàng	-8.66631
&#236;	-8.66693
▁cân	-8.66879
▁Bà	-8.66937
▁phi	-8.6695
).	-8.66955
▁Kỳ	-8.67343
▁quý	-8.67629
▁hy	-8.67735
▁chẳng	-8.67864
▁suy	-8.67996
▁17	-8.6815
▁quanh	-8.68174
▁2018	-8.68196
H	-8.68229
▁sâu	-8.68351
▁City	-8.68399
▁kh	-8.6844
▁nhấn	-8.68554
N	-8.68644
▁lựa	-8.6879
▁máu	-8.68891
▁Đó	-8.68907
▁vé	-8.68983
▁đón	-8.691
▁sợ	-8.69303
▁100	-8.69388
▁vay	-8.69446
▁Đảng	-8.69626
▁may	-8.69646
▁tín	-8.69697
▁bức	-8.69828
▁nợ	-8.69843
▁suốt	-8.7016
1	-8.70439
▁Phòng	-8.7069
▁Còn	-8.70996
▁bày	-8.7109
▁coi	-8.71109
▁2020	-8.71142
▁Đến	-8.71179
▁dừng	-8.71285
▁phó	-8.7133
▁lạc	-8.71363
I	-8.71423
▁đột	-8.71479
▁chăm	-8.71576
▁nhớ	-8.71917
▁quần	-8.72087
▁cập	-8.72827
▁Hồ	-8.73009
▁thừa	-8.73395
▁ưu	-8.7343
▁can	-8.73523
▁Bệnh	-8.73613
▁22	-8.73656
▁đáp	-8.73737
▁nhẹ	-8.73871
▁Ba	-8.739
▁rời	-8.74023
▁E	-8.7431
▁kém	-8.74622
▁khám	-8.74644
▁hâm	-8.74672
▁Để	-8.7498
▁2019	-8.75274
▁trụ	-8.75379
▁Phú	-8.75414
▁Bên	-8.75626
▁miền	-8.76111
▁sút	-8.76197
▁Giám	-8.76211
b	-8.76266
▁Tân	-8.76296
▁R	-8.76402
TNO	-8.76432
▁thiệt	-8.7656
▁mưa	-8.76718
▁khắc	-8.76884
▁chóng	-8.76929
▁lẽ	-8.77036
▁nỗ	-8.7709
▁cháu	-8.77124
▁Chelsea	-8.77306
▁Cơ	-8.77602
▁hài	-8.77753
▁cú	-8.77792
▁giấy	-8.77998
▁đương	-8.78242
▁hải	-8.7839
▁đoán	-8.78469
▁giác	-8.78492
k	-8.78635
▁ma	-8.78811
▁thú	-8.78949
▁Và	-8.79019
▁hấp	-8.79192
▁phê	-8.79231
▁Tài	-8.7944
▁hiệp	-8.79857
▁trời	-8.80052
HCM	-8.80055
▁tầng	-8.8033
d	-8.80334
▁nhắc	-8.80535
▁phán	-8.8059
▁kẻ	-8.81058
▁trắng	-8.81451
▁mời	-8.8156
▁tờ	-8.81607
Chúng	-8.81652
▁HAGL	-8.81674
▁tung	-8.81686
▁dõi	-8.81803
▁quê	-8.81896
▁chấn	-8.82204
▁truy	-8.82347
▁kêu	-8.82389
▁lai	-8.8254
▁khảo	-8.82796
▁ngủ	-8.83251
3	-8.83253
▁Độ	-8.83259
▁Nguyên	-8.83332
▁tuyệt	-8.8334
▁bật	-8.83659
▁th	-8.83705
▁dữ	-8.83794
▁hãy	-8.83985
▁Tiến	-8.84099
▁thảo	-8.84182
▁La	-8.84492
▁hơi	-8.84617
&#234;	-8.8485
▁Biển	-8.8485
”.	-8.84859
▁rơi	-8.84922
▁xanh	-8.84938
▁gắng	-8.84965
▁nuôi	-8.85145
▁bánh	-8.85577
▁cha	-8.85679
▁cận	-8.85855
▁lưới	-8.8599
▁Syria	-8.86184
un	-8.86489
▁đào	-8.86811
▁sóng	-8.86965
▁mật	-8.87106
r	-8.87276
▁thỏa	-8.87429
▁lối	-8.8744
▁phúc	-8.87685
▁lược	-8.88065
▁kịp	-8.8824
▁khổ	-8.88421
▁nghề	-8.88474
▁Lâm	-8.88477
▁cắt	-8.88594
▁Arsenal	-8.88667
▁Sa	-8.88781
▁km	-8.88803
▁50	-8.88995
▁bắn	-8.89042
▁Madrid	-8.89062
▁nhu	-8.8915
▁24	-8.89236
▁Hùng	-8.89337
▁xấu	-8.89379
▁kiểu	-8.89532
▁chặn	-8.89817
▁tận	-8.90004
▁Khánh	-8.90215
▁tạp	-8.90303
▁Châu	-8.90307
▁thầy	-8.90514
▁Dũng	-8.90565
▁dưỡng	-8.90635
▁huấn	-8.90676
&	-8.90747
▁t	-8.90757
▁nổ	-8.90901
▁ích	-8.90901
▁Donald	-8.90903
▁25	-8.90956
▁)	-8.91134
▁nối	-8.91186
▁Như	-8.91193
▁Thu	-8.9126
▁mẽ	-8.91575
▁đen	-8.91695
▁Mai	-8.91705
▁dứt	-8.91933
▁ngắn	-8.91958
▁bí	-8.9209
▁nCoV	-8.92434
▁đe	-8.92684
▁ngoái	-8.92861
▁song	-8.92884
▁trú	-8.93243
▁dư	-8.93363
▁2016	-8.93971
▁dần	-8.94147
▁Cục	-8.94363
▁trích	-8.94487
▁tắc	-8.94653
▁New	-8.94667
▁I	-8.94676
▁Q	-8.94792
▁băng	-8.95039
▁Tập	-8.95273
▁cưới	-8.95306
▁ngôn	-8.95317
▁thịt	-8.95333
▁gắn	-8.95338
▁Cũ	-8.95446
▁giản	-8.95478
▁ràng	-8.95492
▁ngược	-8.95577
▁dọa	-8.95603
▁đỉnh	-8.95922
▁liệt	-8.96071
▁căng	-8.96219
▁to	-8.96347
▁niềm	-8.964
▁bối	-8.96492
▁mừng	-8.96544
E	-8.96652
▁mấy	-8.96681
O	-8.97072
▁chặt	-8.97175
▁Sự	-8.97453
▁dạng	-8.97535
&#226;	-8.97837
er	-8.97855
▁dương	-8.98016
▁lãi	-8.98025
▁lắng	-8.98044
▁sung	-8.98118
▁huống	-8.98182
▁váy	-8.98359
▁Bảo	-8.98558
▁gốc	-8.98717
▁Trang	-8.98925
▁Lý	-8.98979
▁đích	-8.99111
▁tệ	-8.99309
R	-8.99606
▁bạc	-8.9969
▁Đình	-8.998
▁chữa	-8.9983
▁ước	-8.99844
▁đợi	-8.99853
▁Quân	-8.99875
▁Thông	-8.99883
▁trăm	-9.00043
▁chụp	-9.00133
▁thoát	-9.00349
▁Liverpool	-9.00431
▁lạ	-9.00534
▁sửa	-9.0059
▁xung	-9.00711
▁sạn	-9.00748
▁đoạt	-9.00959
▁đám	-9.01057
▁thách	-9.01238
▁lẫn	-9.0138
▁thủy	-9.01388
▁tỏa	-9.01419
▁đọc	-9.01801
▁tim	-9.01997
▁súng	-9.02112
▁nửa	-9.0219
▁tù	-9.02389
▁tặng	-9.02399
4	-9.02623
▁ánh	-9.02853
x	-9.03043
▁nhật	-9.03083
▁dàng	-9.03363
▁kịch	-9.03588
▁Gia	-9.03748
▁Biden	-9.03829
▁chục	-9.03964
▁hè	-9.04144
▁miễn	-9.04162
▁Cảnh	-9.04347
in	-9.0435
▁làng	-9.04616
▁Đ	-9.0467
▁kê	-9.04702
▁X	-9.04736
▁nắm	-9.04813
▁Bạn	-9.04974
▁buồn	-9.05091
▁đòi	-9.05101
▁ương	-9.05111
▁Iran	-9.05127
v	-9.05281
▁Tết	-9.05332
▁dây	-9.05334
▁ghế	-9.05452
▁Park	-9.05467
▁Champions	-9.05509
▁tiểu	-9.05592
▁chấm	-9.05602
▁nêu	-9.05662
▁Trắng	-9.05906
▁cặp	-9.06192
▁họa	-9.06301
▁khối	-9.06469
▁hầu	-9.06734
▁giàu	-9.06792
▁cục	-9.06831
▁Hồi	-9.06939
▁Hương	-9.06953
▁Chi	-9.06965
▁chút	-9.07161
▁sông	-9.07222
▁chiếu	-9.07249
▁sóc	-9.07304
▁lá	-9.07634
▁mái	-9.07641
League	-9.07658
▁40	-9.07835
▁lạnh	-9.07894
▁hủy	-9.08431
▁Viện	-9.08449
F	-9.08451
▁Về	-9.08578
▁Ronaldo	-9.08742
▁cam	-9.08969
▁cậu	-9.09131
▁Sài	-9.09619
▁phận	-9.09759
▁gương	-9.09821
▁hạnh	-9.09915
▁Dân	-9.09943
▁Đài	-9.09963
▁thượng	-9.10029
▁video	-9.10067
▁khắp	-9.10141
▁O	-9.1039
▁xăng	-9.10398
▁khuyế	-9.10409
▁Ngay	-9.10415
▁Vinh	-9.105
▁Đội	-9.10962
▁Gòn	-9.11063
▁đợt	-9.1117
▁Huy	-9.11403
▁chở	-9.11488
▁Malaysia	-9.11531
▁Nhân	-9.11534
▁đem	-9.1169
▁cháy	-9.11784
▁mơ	-9.11823
▁Hưng	-9.11991
▁chậm	-9.12024
▁niệm	-9.12389
▁chạm	-9.1244
▁thiệu	-9.12728
▁200	-9.12805
▁h	-9.1281
▁Hàng	-9.1286
▁Trên	-9.13011
▁Washington	-9.13086
▁hẹn	-9.13199
▁đứa	-9.13273
▁thuyết	-9.13323
▁dựa	-9.13371
▁phường	-9.13557
▁Thắng	-9.13581
▁Phượng	-9.13839
▁đàm	-9.13845
▁gấp	-9.13893
▁Chiến	-9.14115
▁Hiệp	-9.14264
▁0	-9.14307
▁Vĩnh	-9.14355
▁cười	-9.14439
th	-9.1459
▁phổ	-9.1486
▁Tổ	-9.15082
▁tri	-9.15263
▁ơn	-9.15327
▁dịp	-9.15339
▁IS	-9.15381
▁mê	-9.15391
▁Ngân	-9.15522
▁Barcelona	-9.15614
▁2015	-9.15807
▁đạn	-9.15965
▁nông	-9.16014
▁2017	-9.16136
▁dáng	-9.1627
▁mã	-9.16368
▁500	-9.16499
▁tôn	-9.16535
▁Hóa	-9.16697
▁Messi	-9.16911
▁Facebook	-9.16964
▁Phan	-9.17003
▁đèn	-9.17043
▁lắm	-9.1715
6	-9.17175
▁sạch	-9.1719
▁dạy	-9.1724
▁Phong	-9.17284
▁thập	-9.17484
▁Bí	-9.17664
▁gió	-9.17697
▁Con	-9.17753
▁quảng	-9.17809
▁Phúc	-9.17811
▁Phi	-9.1792
▁ung	-9.18203
▁2014	-9.18306
▁xế	-9.18409
▁Dự	-9.18485
▁Duy	-9.18619
▁ch	-9.18648
▁kim	-9.18714
▁Nữ	-9.1883
SN	-9.19016
▁Đối	-9.19482
▁VFF	-9.19503
▁chứa	-9.19508
▁khẩn	-9.19629
▁thụ	-9.19667
▁Philippines	-9.19794
▁ngừng	-9.20207
▁khóa	-9.20333
▁nguyện	-9.20566
▁28	-9.20928
▁bão	-9.20932
▁Tiền	-9.21145
▁đỡ	-9.21472
ra	-9.21481
▁s	-9.21638
▁đeo	-9.21655
▁nghìn	-9.21703
▁bè	-9.21767
▁bùng	-9.21795
▁xong	-9.21818
▁cuốn	-9.21861
▁gỡ	-9.22177
▁Phát	-9.22182
ê	-9.22239
▁Indonesia	-9.22248
▁Ca	-9.22463
▁thiên	-9.22627
▁g	-9.22662
▁chợ	-9.22723
▁kèm	-9.22742
▁nhượng	-9.2299
▁chàng	-9.23111
X	-9.23302
▁Cả	-9.23336
▁tồn	-9.23349
▁Honda	-9.23524
▁Cụ	-9.23818
▁Loan	-9.23851
▁kính	-9.24057
▁27	-9.24195
▁thải	-9.24228
▁Hong	-9.24356
ma	-9.24543
▁thẻ	-9.24745
19	-9.24956
▁tóc	-9.24987
▁Thời	-9.25081
▁hoảng	-9.25282
▁ép	-9.25314
▁vững	-9.25472
▁Kong	-9.25629
▁rạng	-9.25754
▁rừng	-9.25858
▁xu	-9.25867
▁Thiên	-9.25879
▁hứng	-9.25975
▁Kết	-9.26028
▁đuổi	-9.26108
▁Vân	-9.2642
la	-9.2658
▁khung	-9.26653
en	-9.26686
5	-9.26896
▁thác	-9.26911
▁chối	-9.26966
▁hoàng	-9.27209
▁Cộng	-9.27213
ĐT	-9.27253
▁Jong	-9.27282
▁tuy	-9.27713
▁26	-9.27946
▁Mạnh	-9.28248
▁thở	-9.28275
▁tấm	-9.2838
▁Đoàn	-9.28736
▁nhảy	-9.28762
▁yên	-9.28785
▁đài	-9.28915
7	-9.29187
▁khấu	-9.29199
▁phức	-9.29341
▁Báo	-9.29641
▁ngang	-9.29727
▁mắn	-9.29773
▁túy	-9.29864
▁túi	-9.29898
▁nh	-9.30021
▁tiêm	-9.30043
le	-9.30084
▁bãi	-9.301
▁núi	-9.30447
▁thận	-9.30569
▁tá	-9.30638
▁đừng	-9.30672
▁sốt	-9.30756
▁vỡ	-9.30769
▁Trọng	-9.31011
▁Luật	-9.31096
▁bạo	-9.31236
▁thai	-9.31401
▁Hữu	-9.31516
Đ	-9.31559
▁hề	-9.31668
▁bom	-9.32012
▁Apple	-9.32137
▁Trưởng	-9.32274
▁Huawei	-9.32354
▁trừ	-9.32357
▁2012	-9.32358
ro	-9.32378
▁trùng	-9.32383
▁Cường	-9.32633
▁sứ	-9.32787
▁Singapore	-9.328
▁Brazil	-9.32855
el	-9.32958
▁xứ	-9.32984
▁rối	-9.33028
▁nỗi	-9.33048
▁iPhone	-9.33099
▁dắt	-9.3348
▁Trương	-9.33623
▁d	-9.33667
▁ga	-9.33911
▁Đào	-9.33949
▁Cần	-9.34033
▁hương	-9.34062
U	-9.34166
▁mai	-9.34332
▁De	-9.34464
8	-9.34637
▁rẻ	-9.34684
▁tộc	-9.35004
▁Ukraine	-9.35225
▁tán	-9.35295
▁sa	-9.35304
▁Mourinho	-9.35579
▁Du	-9.35583
▁tiếc	-9.35593
▁Toyota	-9.35617
▁liền	-9.35657
▁rượu	-9.35746
▁giọng	-9.35849
▁khiển	-9.35925
▁khích	-9.36079
▁Thứ	-9.36368
▁Games	-9.36702
▁lắp	-9.36738
▁nghèo	-9.36914
▁góc	-9.36955
▁Định	-9.37227
▁hào	-9.37266
▁Đặc	-9.37268
▁cơn	-9.37385
▁Di	-9.37444
Theo	-9.37488
▁tụ	-9.37608
▁&	-9.37691
▁Nhĩ	-9.3774
▁29	-9.37787
▁kháng	-9.37801
on	-9.37833
▁Thương	-9.37873
▁trương	-9.38196
▁nộp	-9.38424
▁Tất	-9.38445
▁Thổ	-9.39378
▁linh	-9.395
▁quà	-9.39686
▁chữ	-9.39798
▁cản	-9.399
▁duyệt	-9.39911
▁vắng	-9.40005
▁cà	-9.40361
▁Vụ	-9.40528
▁cấu	-9.40984
▁trấn	-9.41018
▁hô	-9.41277
▁kia	-9.41464
▁sàn	-9.41571
▁loạn	-9.4174
▁Lúc	-9.42019
/11	-9.42062
z	-9.42156
▁khoe	-9.42162
▁Premier	-9.42247
đ	-9.42266
▁ngầm	-9.42372
▁phú	-9.42463
▁thảm	-9.42564
▁hứa	-9.42593
▁300	-9.42622
".	-9.4268
▁Chung	-9.42773
▁Ma	-9.42822
▁vời	-9.43017
▁gói	-9.43159
▁ngàn	-9.43214
▁Toàn	-9.43281
▁kênh	-9.43558
▁Cầu	-9.43659
▁bây	-9.43917
▁Su	-9.43932
▁Hậu	-9.43982
▁hiếm	-9.43997
▁hộp	-9.44089
▁Tâm	-9.44237
▁mạch	-9.4429
ta	-9.44389
▁chào	-9.4444
▁Nghị	-9.4444
man	-9.44481
▁60	-9.44542
▁giết	-9.44598
▁cãi	-9.44632
▁huyết	-9.44704
▁Iraq	-9.44812
.000	-9.4516
▁r	-9.45582
▁dao	-9.45698
/9	-9.4576
quot	-9.4585
us	-9.46015
▁ẩn	-9.4612
/10	-9.4635
▁York	-9.46406
▁Cuộc	-9.46624
▁kiệm	-9.46636
▁Khu	-9.4671
▁viêm	-9.46737
▁Hôm	-9.46824
▁tươi	-9.46888
▁Số	-9.47069
▁Khoa	-9.47125
▁bữa	-9.4713
▁Hạ	-9.47185
▁Thường	-9.47824
▁Thượng	-9.47881
▁phỏng	-9.4791
▁lầm	-9.4793
▁The	-9.48104
▁quên	-9.48145
▁bờ	-9.48278
▁Thụy	-9.48388
▁Được	-9.48407
▁Mặc	-9.48418
▁dường	-9.48423
▁tr	-9.48426
▁Đầu	-9.48468
▁trúng	-9.48566
▁Vương	-9.4883
an	-9.48856
▁nhắn	-9.48903
▁Giá	-9.49016
▁Cùng	-9.49049
▁hẳn	-9.49073
▁tùy	-9.49086
▁đê	-9.49094
▁Thủy	-9.49118
re	-9.49413
▁xâm	-9.49424
▁thổ	-9.49493
/12	-9.498
▁chuyền	-9.49839
to	-9.49992
▁trốn	-9.50056
▁giỏi	-9.50113
▁bậc	-9.50134
▁BV	-9.50178
▁Bùi	-9.50249
▁Olympic	-9.50313
▁Thực	-9.50329
▁United	-9.50342
▁Võ	-9.50402
▁tứ	-9.5044
▁ngã	-9.50706
▁quỹ	-9.50732
▁lừa	-9.50746
▁Manchester	-9.50814
or	-9.50931
▁dám	-9.50972
▁tổn	-9.51044
▁mềm	-9.51098
▁Tư	-9.51395
▁ngũ	-9.5153
▁hồng	-9.51613
▁tả	-9.5163
▁nhiêu	-9.51754
▁cướp	-9.51859
▁chủng	-9.52022
▁vaccine	-9.52028
▁Cho	-9.52054
▁Bởi	-9.52115
▁điệp	-9.52241
▁W	-9.52285
▁vết	-9.5229
▁khen	-9.52321
▁x	-9.52459
▁dậy	-9.52591
▁Chí	-9.52729
▁GD	-9.52947
▁dụ	-9.53143
▁Phước	-9.53266
▁đắt	-9.53415
/8	-9.53522
▁Ngô	-9.53531
▁Thuận	-9.53604
▁qu	-9.53647
▁sắt	-9.53733
▁cột	-9.53811
▁nắng	-9.54104
▁đồn	-9.54137
▁thù	-9.54207
▁Lương	-9.54263
▁lợn	-9.54362
▁ngon	-9.54618
▁Nhưỡng	-9.54642
▁trừng	-9.54657
30	-9.54774
▁Cách	-9.54831
▁đậm	-9.55001
▁phẫu	-9.55048
▁2013	-9.55179
▁Em	-9.55282
▁Nghệ	-9.55388
▁hùng	-9.55393
▁thang	-9.55462
▁mãi	-9.55568
▁tân	-9.55612
▁lũ	-9.55634
na	-9.55642
▁Yên	-9.55707
▁Obama	-9.5577
▁khóc	-9.55804
▁Quyết	-9.5582
▁thầu	-9.55948
à	-9.55995
▁bồi	-9.56099
▁gà	-9.56168
▁nét	-9.56318
▁rửa	-9.56755
▁THPT	-9.56911
▁ngữ	-9.56918
do	-9.57093
▁vợt	-9.57095
▁xứng	-9.57099
▁Chị	-9.57207
▁giấu	-9.57408
▁lô	-9.5746
▁Thảo	-9.57524
▁phổi	-9.57553
▁bù	-9.5763
▁J	-9.57653
▁Tàu	-9.5766
▁cờ	-9.57816
▁Tình	-9.57855
Q	-9.57864
▁kín	-9.57893
▁chúc	-9.57985
▁tiềm	-9.58002
▁giam	-9.58004
▁Ra	-9.58244
▁thôn	-9.58439
▁ôm	-9.58453
▁già	-9.58459
ri	-9.58695
▁ro	-9.5871
▁mưu	-9.58722
▁Bayern	-9.58724
▁tảng	-9.58809
▁Hã	-9.58818
/6	-9.59025
▁trữ	-9.59153
▁DN	-9.59159
▁thăng	-9.59273
▁chốt	-9.59303
▁Qua	-9.59361
không	-9.59368
▁kiên	-9.59672
▁nhuận	-9.59773
▁ngự	-9.59836
▁CĐV	-9.60002
▁diệt	-9.60239
▁Huỳnh	-9.60613
▁ống	-9.60654
▁Giải	-9.60684
/1	-9.60883
▁Cúp	-9.60989
lo	-9.61123
▁dày	-9.6121
▁cứng	-9.61325
▁lỗ	-9.61542
▁sổ	-9.61548
▁bắc	-9.61686
▁rác	-9.61693
▁tiệc	-9.61694
▁thơ	-9.61779
▁điển	-9.6185
▁ngừa	-9.61916
▁thoải	-9.61951
▁Hán	-9.62012
▁Barca	-9.6203
TT	-9.62119
▁trông	-9.62168
▁gợi	-9.62331
▁Vào	-9.62443
▁ngọt	-9.62719
▁ĐH	-9.63039
▁đập	-9.63105
▁Tú	-9.63108
▁ngụ	-9.63567
▁giây	-9.6362
▁Kiểm	-9.63635
▁dâm	-9.63843
▁Sáng	-9.63868
▁Mỗ	-9.63911
▁đẳng	-9.63942
▁cơm	-9.64098
▁thiệp	-9.64165
▁nhũng	-9.64207
▁tốn	-9.64241
9	-9.64253
▁dàn	-9.64646
▁SEA	-9.64731
▁Tùng	-9.64853
▁mạc	-9.6489
▁ví	-9.64976
da	-9.6498
▁dị	-9.65133
▁Nhất	-9.65255
▁treo	-9.65296
▁So	-9.65322
▁Na	-9.65374
▁trưng	-9.65489
▁Biên	-9.65791
▁võ	-9.65899
▁hiến	-9.6593
▁ko	-9.66087
▁rau	-9.66114
▁!	-9.66149
▁rủi	-9.66509
▁Van	-9.66517
▁ASEAN	-9.66538
▁Cao	-9.66574
▁lọt	-9.66585
▁kg	-9.66846
▁đáo	-9.66935
▁mát	-9.6696
al	-9.67074
▁lẻ	-9.67078
▁đâm	-9.6721
▁đo	-9.67344
▁Đỗ	-9.6746
▁uy	-9.67485
▁khuôn	-9.67799
/4	-9.67861
▁hỏng	-9.67865
▁ấm	-9.679
▁Australia	-9.67917
▁Utd	-9.68008
▁điệu	-9.68225
▁Mới	-9.6825
▁trồng	-9.68561
/2	-9.68577
▁Thơ	-9.68603
▁chó	-9.68777
▁Xe	-9.68884
▁chẽ	-9.69016
▁lưng	-9.69042
▁corona	-9.69046
▁Niên	-9.69072
▁ngập	-9.69139
W	-9.69173
▁Ai	-9.69339
▁mỹ	-9.69427
▁đấy	-9.69623
▁lâm	-9.69903
▁Hoài	-9.69996
▁FIFA	-9.70007
▁bào	-9.70291
▁Al	-9.70379
▁đền	-9.70401
▁bó	-9.70411
▁in	-9.70463
as	-9.70513
▁Hợp	-9.70825
20	-9.70827
gi	-9.70856
▁phanh	-9.71007
▁?	-9.71021
▁Li	-9.71089
kg	-9.71101
▁Bác	-9.71134
▁tông	-9.71206
▁Là	-9.71249
▁90	-9.71264
▁não	-9.71508
▁tuân	-9.71756
▁che	-9.71823
▁Putin	-9.71857
▁bốn	-9.71961
▁Tottenham	-9.72109
▁thuyền	-9.72135
▁túc	-9.72233
▁Nó	-9.72398
▁VĐV	-9.72649
▁lành	-9.72669
▁Hơn	-9.72824
▁phấn	-9.72825
son	-9.7288
/5	-9.72913
▁Th	-9.72941
▁tây	-9.72968
▁3,	-9.73026
▁Bồ	-9.73047
▁tràn	-9.73072
▁hoãn	-9.73104
▁31	-9.73145
▁trục	-9.73197
▁45	-9.73203
▁Twitter	-9.73348
▁Nai	-9.73559
&#250;	-9.73573
▁va	-9.73581
▁Song	-9.73585
▁sắm	-9.73632
▁khuyên	-9.73711
▁mệt	-9.7375
ar	-9.73907
▁Argentina	-9.73986
▁sốc	-9.73997
▁ruột	-9.74008
▁Le	-9.74025
ó	-9.7418
▁tường	-9.74201
▁kho	-9.74413
▁quang	-9.74425
▁Tỉnh	-9.74427
▁khoác	-9.74542
▁Milan	-9.74547
▁chuỗi	-9.74599
▁Điện	-9.74617
▁hoang	-9.74786
▁miệng	-9.74846
▁đươ	-9.75014
▁Vậy	-9.75036
▁mũi	-9.75136
▁Juventus	-9.75142
▁Huế	-9.75222
&#227;	-9.75225
▁top	-9.7542
▁camera	-9.75438
▁Chiều	-9.75475
▁2018,	-9.75491
▁Chiếc	-9.75538
▁Reuters	-9.75685
▁thiểu	-9.75689
10	-9.75723
▁cỡ	-9.75734
▁chảy	-9.75821
▁bụng	-9.75974
▁Pa	-9.76014
▁bê	-9.76073
TP	-9.76158
▁Cuối	-9.76202
▁400	-9.76265
▁sữa	-9.7646
▁35	-9.76547
▁ngưỡng	-9.76788
▁pháo	-9.76981
▁Bài	-9.7703
▁Paris	-9.77414
▁70	-9.77433
êu	-9.77691
▁Ka	-9.77799
ha	-9.7783
▁đạp	-9.77843
ả	-9.77936
▁viễn	-9.78299
▁Giáo	-9.7835
▁Canada	-9.78359
▁nhé	-9.78613
▁TT	-9.78646
▁Giới	-9.78772
▁Hy	-9.78952
▁Chu	-9.79069
▁Hình	-9.79255
▁ph	-9.7929
▁lãng	-9.79427
▁trúc	-9.79464
▁4,	-9.79551
▁nấu	-9.79635
▁đai	-9.79667
▁Quản	-9.79694
▁làn	-9.7973
▁Trận	-9.79738
▁CP	-9.79944
▁hoá	-9.8007
▁Quỳnh	-9.80106
▁ngực	-9.80261
▁Xây	-9.80315
▁Italy	-9.80329
▁lọc	-9.80339
▁2019,	-9.80347
▁k	-9.80374
▁Bóng	-9.80398
▁giật	-9.80453
▁hưu	-9.80554
▁khoán	-9.80791
▁7,	-9.80831
▁Lưu	-9.80925
ad	-9.8102
ơ	-9.81087
▁giận	-9.8126
▁thuẫn	-9.81421
▁2011	-9.81496
▁tang	-9.8167
▁fan	-9.82045
te	-9.82226
ke	-9.82247
▁khuẩn	-9.82284
▁gạo	-9.8231
▁Nói	-9.82431
▁bốc	-9.82556
▁dâu	-9.82774
▁Truyền	-9.82831
/7	-9.8299
sa	-9.83101
▁sôi	-9.83486
▁trầm	-9.83504
▁mỏi	-9.83667
Nếu	-9.8372
trái	-9.83846
▁:	-9.83846
năm	-9.83894
▁Liga	-9.83943
▁Quy	-9.83952
▁Thống	-9.83962
▁xinh	-9.84058
▁Google	-9.84085
▁sót	-9.84085
▁buôn	-9.84095
ạ	-9.84113
▁bạch	-9.84121
▁Diễn	-9.84298
▁Hang	-9.8432
▁Hằng	-9.84323
▁Đặng	-9.84444
▁2010	-9.84521
ia	-9.84522
▁vơ	-9.84586
▁Lộc	-9.84623
▁Tấn	-9.84627
▁Lai	-9.84665
▁Thậm	-9.84679
▁lồ	-9.84709
▁Re	-9.84753
▁dính	-9.84925
ur	-9.84927
ne	-9.84932
▁trào	-9.8503
▁la	-9.85166
ti	-9.85246
▁ngợi	-9.85306
▁Quan	-9.85358
li	-9.85389
tr	-9.85428
▁clip	-9.85437
▁hối	-9.85475
▁trật	-9.85585
▁ngươ	-9.85822
▁giày	-9.85854
▁xưa	-9.85864
ir	-9.85969
▁gọn	-9.86029
-19,	-9.86197
▁Phần	-9.86255
et	-9.86436
▁hỏa	-9.86782
▁cảng	-9.86857
▁đốt	-9.86895
&#237;	-9.86906
▁phái	-9.87149
▁AFP	-9.87337
▁bền	-9.8735
▁80	-9.87447
▁ảo	-9.8749
▁Tính	-9.87509
▁trần	-9.87558
ka	-9.87626
▁David	-9.87797
ba	-9.87965
▁Tháng	-9.88012
▁Chương	-9.88056
▁ho	-9.88206
▁trưa	-9.8821
▁Đường	-9.88222
▁6,	-9.88388
il	-9.8864
▁thả	-9.8872
▁London	-9.88839
▁Rất	-9.88857
▁sánh	-9.8896
▁Ánh	-9.89038
▁Vi	-9.89091
▁My	-9.89126
▁Huyền	-9.89176
▁vinh	-9.89217
▁Lực	-9.89243
▁nề	-9.89401
▁bò	-9.89436
▁8,	-9.89756
▁vườn	-9.90054
▁tắm	-9.90101
▁đức	-9.90128
▁tĩnh	-9.90188
-2	-9.90209
▁gan	-9.90243
▁rà	-9.90262
seo	-9.90275
▁trộm	-9.9032
▁tháo	-9.90554
&#242;	-9.90587
▁rào	-9.9062
▁Đinh	-9.90628
▁bớt	-9.90793
▁cất	-9.90858
▁gi	-9.91004
▁bia	-9.91079
ối	-9.9112
▁lệch	-9.91286
▁CSGT	-9.91327
co	-9.91327
▁Tĩnh	-9.91467
▁lặng	-9.91773
is	-9.91976
vi	-9.92168
▁nhi	-9.92186
ton	-9.92191
▁Tối	-9.92285
▁muộn	-9.92343
ed	-9.92438
ò	-9.92567
▁hư	-9.92568
▁thói	-9.92618
bo	-9.92632
es	-9.92771
-1	-9.93133
▁mảnh	-9.93201
▁Hyundai	-9.93394
▁hảo	-9.93481
Hà	-9.93489
▁lùi	-9.93578
▁150	-9.936
ấy	-9.93732
▁phiến	-9.93796
▁lính	-9.93843
▁Co	-9.9396
▁khô	-9.9404
▁đà	-9.94058
▁Đề	-9.94065
▁Lãnh	-9.94222
▁trống	-9.94301
▁Ch	-9.94447
▁tật	-9.9451
▁bếp	-9.94517
▁Thật	-9.94663
▁loài	-9.94876
▁tàng	-9.94919
▁leo	-9.94941
▁Mọi	-9.94986
▁chiêu	-9.95
▁tắt	-9.95025
ô	-9.9515
▁Chưa	-9.95212
▁Ford	-9.95259
▁mùi	-9.95265
▁trạm	-9.95411
▁5,	-9.95429
giờ	-9.95457
▁2021	-9.95619
ị	-9.95635
▁trứng	-9.95765
▁mệnh	-9.95786
▁Học	-9.95884
▁đậu	-9.95904
▁đắc	-9.95944
▁ngư	-9.96157
▁Khoảng	-9.96265
▁Lần	-9.9631
▁cương	-9.96316
người	-9.9633
▁Vietnam	-9.96484
Mỹ	-9.96642
▁hồn	-9.96653
▁Thúy	-9.96823
▁Chánh	-9.96828
ỗi	-9.96947
▁John	-9.97004
▁Gi	-9.97069
▁giấc	-9.97303
▁trại	-9.97352
▁Miura	-9.97425
▁thước	-9.97654
▁Trinh	-9.97679
▁Lào	-9.97832
▁huynh	-9.97841
▁Nhóm	-9.97857
▁Hành	-9.97896
▁giường	-9.97903
der	-9.98024
NG	-9.98035
▁huyền	-9.98098
ông	-9.98213
í	-9.98276
ie	-9.98298
▁TNHH	-9.9831
▁xóa	-9.98382
▁MC	-9.98458
▁chừng	-9.98525
▁Bị	-9.98755
▁Lee	-9.98992
▁xóm	-9.99133
▁tan	-9.99356
▁Bằng	-9.99458
▁giãn	-9.99744
ol	-9.99792
▁Đa	-9.99792
▁Vàng	-9.9986
▁tựa	-9.9987
▁mực	-10.0002
▁táo	-10.0013
▁xoay	-10.0014
▁xương	-10.0036
▁lít	-10.0038
▁bám	-10.0038
▁đam	-10.0059
▁Gần	-10.0079
▁Tam	-10.0082
bi	-10.0087
f	-10.0099
▁Kh	-10.0101
ú	-10.0105
▁dọc	-10.0113
phải	-10.0115
ing	-10.012
);	-10.0123
▁cỏ	-10.0126
▁Viettel	-10.0132
▁mãn	-10.0132
▁thờ	-10.0134
▁bơi	-10.0159
▁niêm	-10.0164
▁Mo	-10.0189
▁Mi	-10.019
▁gỗ	-10.0195
▁hò	-10.0203
▁khát	-10.0204
▁Điển	-10.0207
▁mốc	-10.0221
▁đãi	-10.0225
▁Đáng	-10.0239
▁Campuchia	-10.0241
▁2020,	-10.0246
st	-10.0258
▁Sao	-10.0262
▁Trịnh	-10.0263
▁mượn	-10.0283
▁non	-10.0294
▁Ha	-10.0303
▁Hiếu	-10.0305
▁Munich	-10.0308
▁32	-10.0318
▁Phải	-10.0323
▁dạ	-10.0326
▁Bạch	-10.0329
ở	-10.0333
▁9,	-10.0337
▁Ho	-10.0349
▁GTVT	-10.0353
▁ám	-10.0359
▁Cựu	-10.0368
▁vắc	-10.0372
▁miếng	-10.0387
▁duyên	-10.0392
▁Thi	-10.0397
▁Moscow	-10.0402
▁Triệu	-10.0409
▁Game	-10.0416
▁ác	-10.0416
▁Ko	-10.042
▁mạo	-10.0448
▁lỏng	-10.0466
▁Da	-10.0472
▁of	-10.0477
▁West	-10.0482
▁Băng	-10.0485
▁trọn	-10.049
▁FC	-10.0498
ca	-10.0507
▁vả	-10.0514
▁Trà	-10.0516
▁xả	-10.0529
▁San	-10.0532
▁dội	-10.0541
▁TAND	-10.0556
▁Hệ	-10.0582
▁Joe	-10.0604
▁Neymar	-10.0605
▁Tòa	-10.0605
▁nhắm	-10.0606
▁Nhi	-10.0612
▁thê	-10.0617
de	-10.0626
id	-10.0628
▁Myanmar	-10.063
▁Nghĩa	-10.0632
▁ném	-10.0633
▁nồng	-10.0637
ụ	-10.0639
▁Israel	-10.0639
▁web	-10.0642
▁Thay	-10.0646
▁Ga	-10.065
▁khống	-10.0654
▁ơi	-10.0657
Th	-10.0661
▁euro	-10.0663
Trung	-10.0671
▁lỡ	-10.0674
▁chặng	-10.0679
at	-10.0682
▁ngạc	-10.0689
▁Riêng	-10.0699
▁Bỉ	-10.0707
50	-10.0708
Y	-10.0746
ừa	-10.0773
▁Cái	-10.0784
▁Siêu	-10.08
▁Hiền	-10.08
▁nhịp	-10.082
ce	-10.0826
▁ổ	-10.0837
0	-10.085
▁bận	-10.0853
▁Hãng	-10.0855
di	-10.0864
▁Mexico	-10.088
▁mổ	-10.089
ong	-10.0893
▁mâu	-10.0894
40	-10.0897
Các	-10.0899
▁ng	-10.0915
▁dồn	-10.0924
▁Cha	-10.0936
▁vua	-10.0938
▁phe	-10.0953
▁tròn	-10.0962
ic	-10.0974
▁chu	-10.0978
ập	-10.0987
▁Danh	-10.0994
▁Tiếp	-10.0997
▁Lo	-10.1011
ph	-10.1026
▁béo	-10.1031
▁2-1	-10.1033
▁ha	-10.1044
me	-10.1075
▁chùa	-10.108
▁Kiều	-10.1081
▁đỗ	-10.11
▁nút	-10.1106
▁ráp	-10.1121
▁rắn	-10.1126
▁Ro	-10.1133
▁Cà	-10.1135
/2019	-10.1138
▁chê	-10.1143
▁MV	-10.1143
▁phu	-10.1144
▁show	-10.1146
▁cốt	-10.1147
▁thùng	-10.1151
▁Viên	-10.1155
▁Atletico	-10.1161
▁co	-10.1162
▁2-0	-10.1163
▁2008	-10.1178
mi	-10.118
▁36	-10.1195
▁Yến	-10.1203
ệ	-10.1204
▁Thọ	-10.1208
▁giảng	-10.121
▁bá	-10.1213
▁u	-10.1225
é	-10.1227
▁Clinton	-10.1231
▁Lam	-10.1234
▁Go	-10.1234
▁Hoàn	-10.1239
ư	-10.1246
▁lứa	-10.1252
▁săn	-10.126
▁Tuyên	-10.1262
▁online	-10.1268
▁vẹn	-10.1273
▁mm	-10.1278
be	-10.1278
▁ghép	-10.1279
▁Z	-10.1283
▁Samsung	-10.1287
za	-10.1289
▁PSG	-10.1291
▁cẩn	-10.1293
Anh	-10.1317
▁Kiên	-10.1323
▁dốc	-10.1327
▁nàng	-10.1339
▁nhàng	-10.1342
▁triệt	-10.1349
ất	-10.1368
▁Quý	-10.1375
▁trà	-10.1382
▁dọn	-10.1388
▁lơ	-10.1397
▁Thể	-10.1405
▁hẹp	-10.1428
it	-10.1434
▁hiếp	-10.1439
▁hầm	-10.1439
▁Quá	-10.1447
▁cúp	-10.1455
▁Tr	-10.1455
▁tàn	-10.1464
▁Nên	-10.1465
▁de	-10.1472
▁Đăng	-10.1476
▁heo	-10.1488
▁dập	-10.1494
▁10,	-10.1495
▁hung	-10.1501
▁Ly	-10.1503
wa	-10.1505
▁600	-10.1519
▁Giao	-10.152
▁tách	-10.1532
▁dinh	-10.1536
▁Mike	-10.1539
ine	-10.1548
Đây	-10.1555
▁nhạy	-10.1556
▁e	-10.1557
▁khứ	-10.1573
▁thép	-10.1573
▁bế	-10.1576
▁PV	-10.1576
▁Đã	-10.1586
▁Giờ	-10.1588
▁chìm	-10.1595
▁Vợ	-10.16
▁Trị	-10.1604
▁dược	-10.161
▁thô	-10.1627
hẳng	-10.163
▁Mặt	-10.1631
ul	-10.1632
▁Gaal	-10.1634
â	-10.1641
ỏ	-10.1648
iên	-10.1651
▁James	-10.1662
▁trọ	-10.1663
áo	-10.1665
▁Ar	-10.1665
▁Sinh	-10.1667
nd	-10.1668
▁Thư	-10.1681
▁El	-10.1694
▁ngộ	-10.1698
▁Lợi	-10.1705
▁Dịch	-10.1709
Người	-10.1711
▁khuyết	-10.1711
▁nhầm	-10.1712
▁hoan	-10.1739
▁dã	-10.1746
ắt	-10.1752
▁gánh	-10.1759
▁su	-10.176
▁2017,	-10.1792
▁lạm	-10.1801
có	-10.1808
▁hạm	-10.1816
ì	-10.1831
▁Trí	-10.1849
▁tồi	-10.1856
▁Pro	-10.1856
▁AFF	-10.1865
▁vươn	-10.1875
▁Đạo	-10.1889
▁Tiểu	-10.189
▁trôi	-10.1911
mo	-10.1912
▁lấn	-10.1913
▁mét	-10.1924
▁Mercedes	-10.1926
▁50%	-10.1934
▁rãi	-10.1936
▁tôm	-10.1948
▁ẩm	-10.1956
▁khâu	-10.1962
chi	-10.1966
▁34	-10.1969
▁đâ	-10.1972
▁Bo	-10.1976
▁LMHT	-10.1986
▁lãm	-10.1986
▁nhánh	-10.1994
▁dò	-10.2001
ăn	-10.2007
▁cống	-10.2027
3%	-10.2041
km	-10.2062
J	-10.2066
▁Cổ	-10.2076
▁cổng	-10.2078
8%	-10.2083
▁bề	-10.2089
▁Ri	-10.2104
▁vất	-10.2105
▁2016,	-10.2107
The	-10.211
▁vải	-10.2111
▁thơm	-10.2122
▁chinh	-10.2122
▁(20	-10.2122
▁hổ	-10.2137
▁lận	-10.214
Những	-10.2153
▁bọn	-10.2156
▁Thịnh	-10.216
os	-10.216
▁cưỡng	-10.2161
▁vướng	-10.2192
▁Xin	-10.2193
60	-10.2195
▁ái	-10.22
ya	-10.2224
▁Kể	-10.2226
▁giáp	-10.2231
om	-10.2239
▁TS	-10.2245
▁say	-10.2254
▁cụm	-10.2261
▁đựng	-10.2262
▁Dung	-10.2268
▁Phim	-10.2274
pe	-10.2274
▁Nhìn	-10.2275
▁Inter	-10.2284
lu	-10.2291
▁taxi	-10.2295
▁Làm	-10.2307
6%	-10.231
▁Top	-10.231
▁11,	-10.231
▁Động	-10.2311
▁Doanh	-10.2319
▁vội	-10.2321
▁Cát	-10.2324
ley	-10.2325
▁đòn	-10.233
▁thự	-10.2332
▁kẹt	-10.2333
▁Nghiên	-10.2339
▁chín	-10.2358
▁vĩ	-10.2364
4%	-10.2375
▁al	-10.2389
7%	-10.2395
▁chẩn	-10.2398
ết	-10.2411
ù	-10.2412
Đừng	-10.2416
ard	-10.2421
▁Tương	-10.2424
▁Tô	-10.2425
▁p	-10.2436
ly	-10.2437
▁truyện	-10.2451
▁đụng	-10.2466
▁ưa	-10.2478
▁nhãn	-10.2478
▁Mau	-10.249
▁tha	-10.2507
ter	-10.2521
45	-10.2526
▁mạn	-10.2527
Không	-10.253
▁Guardiola	-10.2533
▁yết	-10.2534
▁California	-10.2534
ẽ	-10.2538
▁tu	-10.2548
▁canh	-10.255
▁cát	-10.2556
ga	-10.2557
▁Paul	-10.2576
Khi	-10.2588
▁Đan	-10.2592
▁smartphone	-10.2596
▁liều	-10.2597
ngày	-10.26
ắc	-10.26
▁II	-10.2601
▁HĐXX	-10.2606
▁kiêm	-10.2614
▁Câu	-10.2622
▁Lệ	-10.2625
ak	-10.2626
em	-10.2627
một	-10.2628
▁Vị	-10.2633
▁1-0	-10.2643
▁cắp	-10.2643
▁than	-10.2653
▁Nhờ	-10.2675
▁33	-10.2683
▁bến	-10.2703
ve	-10.2703
▁vẽ	-10.2713
▁Bấ	-10.2714
▁nhẫn	-10.2715
▁mì	-10.2727
▁800	-10.2736
▁bọc	-10.2736
VN	-10.2739
5%	-10.2755
▁Cẩm	-10.2773
▁Đàm	-10.2774
▁1-1	-10.2782
▁Tử	-10.2793
▁bi	-10.2794
▁BMW	-10.2795
▁gián	-10.2802
ina	-10.2804
▁Kế	-10.2819
▁củng	-10.282
▁Thùy	-10.2825
ko	-10.2828
▁trùm	-10.2843
▁khiếu	-10.2855
tháng	-10.2856
sh	-10.287
ho	-10.288
▁Tokyo	-10.2887
▁răng	-10.289
▁Điểm	-10.2892
ổ	-10.2921
▁Video	-10.2922
▁Euro	-10.2922
▁gay	-10.2924
▁700	-10.2936
▁Ja	-10.2938
theo	-10.294
▁Airlines	-10.2942
▁48	-10.295
▁ốc	-10.2955
▁hỗn	-10.2962
ợ	-10.2968
no	-10.2977
▁Mẹ	-10.2982
▁thổi	-10.2991
▁Mazda	-10.2999
▁Bi	-10.3
▁SUV	-10.3008
▁mù	-10.3012
▁Tháp	-10.3015
ry	-10.3016
▁chán	-10.302
1%	-10.303
▁nhì	-10.3035
▁Ru	-10.3036
▁Gu	-10.3045
▁Mar	-10.306
▁Mùa	-10.3061
23	-10.3062
▁Jose	-10.3075
▁Wenger	-10.3078
▁Ham	-10.3079
▁Galaxy	-10.3082
▁hi	-10.3082
▁Đất	-10.309
▁Bale	-10.3095
▁đùa	-10.3099
▁xuân	-10.3117
Tr	-10.3117
▁bụi	-10.3122
Quỷ	-10.3124
▁St	-10.3124
▁hụt	-10.3132
ủ	-10.3137
IS	-10.3138
99	-10.3144
▁trộn	-10.3149
▁Dortmund	-10.3155
▁Seoul	-10.3172
▁Nước	-10.3175
▁vang	-10.3188
ặp	-10.3189
▁mảng	-10.3192
▁dĩ	-10.3193
land	-10.3201
Có	-10.3203
▁bỏng	-10.3212
ov	-10.3224
▁vỏ	-10.3226
▁SLNA	-10.3227
▁Chuyên	-10.324
con	-10.324
▁tủ	-10.3243
▁lông	-10.3243
▁ngơi	-10.3247
▁1,5	-10.3249
▁WHO	-10.3255
▁Trái	-10.326
▁Mobile	-10.328
00	-10.3287
▁gắt	-10.3288
▁In	-10.3289
▁hàm	-10.3296
▁ngắm	-10.3298
w	-10.3304
▁38	-10.3313
2%	-10.3318
ố	-10.3326
▁Mong	-10.3328
▁vương	-10.3342
▁lang	-10.3356
▁chênh	-10.3364
▁Mark	-10.3371
▁ven	-10.3396
▁Sĩ	-10.3396
▁cua	-10.3399
ền	-10.34
▁chăn	-10.3411
/2017	-10.3414
▁Vy	-10.3419
▁sơn	-10.342
▁đới	-10.3422
▁vây	-10.3424
ran	-10.3432
▁Tuyển	-10.3438
▁To	-10.3441
▁hằng	-10.3443
▁CH	-10.3445
▁rạp	-10.3459
▁dỡ	-10.347
ow	-10.347
▁TN	-10.3474
▁khéo	-10.3483
▁100%	-10.3495
▁Xô	-10.3504
▁hé	-10.3522
80	-10.3528
▁lật	-10.3566
▁BS	-10.3573
▁Bến	-10.3581
▁BN	-10.3584
▁câ	-10.3594
▁cay	-10.3599
/3	-10.36
Bộ	-10.3612
▁đầm	-10.3635
▁Tuần	-10.3638
▁CSĐT	-10.3638
▁12,	-10.3643
lan	-10.3644
▁bột	-10.3647
▁rũ	-10.3659
▁37	-10.3667
▁khoảnh	-10.3667
▁Michael	-10.3669
▁Old	-10.3675
▁TikTok	-10.368
ge	-10.3681
ến	-10.3686
so	-10.3689
▁gối	-10.3699
/2018	-10.371
▁Tu	-10.3718
▁nhựa	-10.3722
ki	-10.3725
▁sụt	-10.3726
▁nướng	-10.373
':	-10.3733
▁buýt	-10.3733
▁Serie	-10.3739
▁Kông	-10.374
Trong	-10.3743
▁Lễ	-10.3746
▁Ni	-10.3752
9%	-10.3757
pa	-10.3768
▁rỡ	-10.3769
ái	-10.377
▁Bố	-10.3782
▁tiê	-10.3794
▁lộn	-10.3799
lin	-10.3807
▁lò	-10.3807
%	-10.3816
ji	-10.3824
▁HCV	-10.3827
▁Ta	-10.3832
▁trượt	-10.3848
▁thắt	-10.3853
▁EU	-10.3856
▁mến	-10.3862
▁Lịch	-10.3862
▁1-2	-10.3867
▁Chia	-10.3868
▁muối	-10.3869
▁móc	-10.387
▁HĐND	-10.3887
kh	-10.3892
▁khôi	-10.3898
▁Quả	-10.3899
▁Đúng	-10.3904
▁mầm	-10.3922
▁nhâ	-10.3926
▁mi	-10.3929
70	-10.3931
▁thoái	-10.3949
ung	-10.395
▁chém	-10.3964
▁CEO	-10.3975
▁nở	-10.3978
▁2015,	-10.3984
▁Be	-10.3996
▁ngào	-10.3997
▁ôtô	-10.4008
▁Nhung	-10.402
▁Bàn	-10.4027
▁USS	-10.4034
hi	-10.4049
▁rực	-10.4056
▁Thiết	-10.406
▁cự	-10.406
▁2014,	-10.4066
▁Địa	-10.4074
▁a	-10.4097
▁Tự	-10.41
▁nhở	-10.4101
▁Cristiano	-10.4107
▁10%	-10.412
▁quét	-10.4129
▁nhạt	-10.4152
▁đắp	-10.4153
▁Lao	-10.416
▁đẻ	-10.4161
▁Suarez	-10.4166
▁im	-10.4181
▁lở	-10.4181
▁Đắk	-10.4206
▁Se	-10.421
-3	-10.4213
▁oan	-10.4214
▁hoài	-10.4215
▁TH	-10.422
▁Mức	-10.4228
▁Nhận	-10.4233
lượng	-10.4235
▁(1	-10.4242
▁chua	-10.4242
ck	-10.4243
▁lăn	-10.4256
▁Hu	-10.4263
Ch	-10.4278
-20	-10.4278
▁Mình	-10.4288
▁loa	-10.4292
▁UAE	-10.4297
▁sáu	-10.4299
▁tết	-10.4314
▁lội	-10.4314
▁đĩa	-10.4324
▁thủng	-10.4334
▁xách	-10.4345
▁vâ	-10.4349
▁lôi	-10.4357
▁dối	-10.4363
▁Dướ	-10.437
▁Ph	-10.4375
▁Pi	-10.4378
▁&#244;	-10.4383
▁Harry	-10.4385
MT	-10.4386
▁the	-10.4389
át	-10.4396
▁Thiếu	-10.4416
▁Trafford	-10.4422
▁Đô	-10.4426
ế	-10.4429
▁lấp	-10.4436
▁39	-10.4439
▁quyến	-10.446
▁pin	-10.4465
▁xạ	-10.448
▁tiệm	-10.4499
▁Nông	-10.4509
▁PC	-10.451
▁55	-10.4514
õ	-10.4522
▁cài	-10.4525
va	-10.4526
▁Europa	-10.455
▁trội	-10.4565
▁He	-10.4579
fa	-10.4581
▁Nghi	-10.4589
è	-10.4594
▁Air	-10.4596
j	-10.4605
▁vê	-10.4614
▁ức	-10.4616
▁Diễm	-10.4619
▁Leicester	-10.4619
▁Tom	-10.4619
▁Thừa	-10.4624
út	-10.464
▁Thiện	-10.4644
ah	-10.4647
si	-10.4658
▁Ngôi	-10.4668
▁Chúc	-10.4669
▁mờ	-10.4675
-19.	-10.4685
▁ạ	-10.4687
▁khoẻ	-10.469
▁Hạnh	-10.4691
su	-10.4693
▁FA	-10.4715
▁men	-10.4722
▁HĐQT	-10.4725
um	-10.4729
ian	-10.4742
▁Alibaba	-10.4748
▁bấm	-10.4754
▁rắc	-10.4765
ja	-10.4768
▁hước	-10.4777
▁Ben	-10.4777
▁gục	-10.478
▁hoành	-10.4782
▁lăng	-10.4788
go	-10.4789
▁Cảm	-10.4791
▁nhỉ	-10.4791
▁bát	-10.4793
-4	-10.4802
▁Mẫu	-10.4816
▁thềm	-10.4832
▁Tham	-10.4835
▁san	-10.4837
▁đôla	-10.4837
▁hoà	-10.4841
▁quãng	-10.4843
ân	-10.4851
21	-10.4856
▁rao	-10.4861
▁nghiện	-10.4879
▁tráng	-10.488
▁phun	-10.488
▁mỏ	-10.4883
fe	-10.4887
ru	-10.489
▁GDP	-10.4896
▁ơ	-10.4898
▁Po	-10.4899
▁Tỷ	-10.49
▁ngột	-10.4902
▁Rooney	-10.4903
ốt	-10.4903
Một	-10.4913
▁dịu	-10.4919
-35	-10.4921
ật	-10.4929
▁Khách	-10.4931
▁lưỡng	-10.4948
▁Hầu	-10.495
▁nảy	-10.4955
▁Ví	-10.4961
▁Liêm	-10.4963
▁Lu	-10.4966
ster	-10.4987
▁đúp	-10.4988
ou	-10.4992
▁hiê	-10.4997
▁nới	-10.5001
ương	-10.5005
âu	-10.501
▁Ng	-10.501
▁Cứ	-10.5016
▁hở	-10.5022
am	-10.5023
▁120	-10.5023
▁Hi	-10.5024
▁Ki	-10.5033
▁Lập	-10.504
▁đuôi	-10.5056
▁Alex	-10.5061
▁Internet	-10.5065
▁Zidane	-10.5077
▁mỡ	-10.5083
▁Ngãi	-10.5093
ai	-10.5094
/2019,	-10.5096
▁khử	-10.5111
15	-10.5134
▁VietNamNet	-10.5139
▁Than	-10.5142
▁hôi	-10.5145
▁Oscar	-10.515
▁gã	-10.5152
gh	-10.516
▁Cận	-10.5163
vo	-10.5166
90	-10.5175
▁Đơn	-10.5175
▁chai	-10.5179
▁khoang	-10.518
khoảng	-10.519
▁Me	-10.5191
▁đứt	-10.5192
▁EURO	-10.5204
▁hoại	-10.5208
han	-10.5211
▁vọt	-10.5217
▁Bước	-10.522
▁trinh	-10.5222
▁Nh	-10.5237
▁hãi	-10.5237
se	-10.5239
65	-10.5247
▁đành	-10.5257
▁Robert	-10.526
▁đính	-10.5262
▁Trả	-10.5274
shi	-10.5279
▁thấu	-10.5284
▁Everton	-10.5291
▁Bitcoin	-10.5295
▁Sang	-10.5298
▁ngọn	-10.5299
▁inch	-10.5302
po	-10.5316
▁NH	-10.532
▁2009	-10.5321
▁chật	-10.5334
▁tuệ	-10.5337
&#249;	-10.5345
out	-10.5347
▁Sport	-10.5347
ron	-10.5358
▁cồn	-10.5374
▁Suzuki	-10.5379
▁Yamaha	-10.5383
▁tẩy	-10.5387
,...	-10.5391
ỉ	-10.5397
▁2007	-10.5414
▁nhiê	-10.5417
▁Đồ	-10.5418
▁Đạt	-10.5419
off	-10.5422
▁Vấn	-10.5422
op	-10.5428
▁Pu	-10.5436
▁nhí	-10.5436
ok	-10.5438
▁Bá	-10.5445
▁khói	-10.5446
▁mẻ	-10.5449
▁bar	-10.5462
▁YouTube	-10.5467
▁Đêm	-10.5472
▁tị	-10.5472
▁khép	-10.5476
▁Đi	-10.5481
▁tê	-10.5486
ốc	-10.5489
▁hang	-10.5494
ick	-10.5494
▁chuộng	-10.5497
▁thợ	-10.5503
▁AFC	-10.551
12	-10.5511
XH	-10.5516
▁May	-10.5526
▁múa	-10.5528
ts	-10.5541
▁chuột	-10.5548
▁Phí	-10.5555
âm	-10.5559
▁250	-10.5564
▁AC	-10.5571
▁eo	-10.5579
▁Car	-10.5582
▁3-0	-10.5605
▁vã	-10.5606
▁son	-10.561
ee	-10.5615
▁dở	-10.5618
ấm	-10.5637
▁Martin	-10.5643
▁ấp	-10.5643
▁cai	-10.5647
▁trễ	-10.5652
/2018,	-10.5654
▁Tạ	-10.5659
95	-10.5677
ần	-10.568
▁điê	-10.569
▁()	-10.5701
ỷ	-10.5707
▁20%	-10.5723
pi	-10.5725
&#233;	-10.5738
▁chip	-10.5756
▁kì	-10.5768
▁ân	-10.577
▁Grand	-10.577
▁Chris	-10.5773
▁Phiên	-10.5778
▁Khả	-10.5781
▁lốp	-10.5782
▁Nhơn	-10.5783
ang	-10.5787
▁mồ	-10.5787
▁luân	-10.5805
▁củ	-10.5809
ếm	-10.5817
▁mây	-10.5819
▁sỹ	-10.5821
▁Tín	-10.5824
▁Son	-10.5825
▁Maria	-10.5831
▁xưởng	-10.5834
▁Lionel	-10.5838
▁ti	-10.5842
▁AS	-10.5849
▁2006	-10.5849
▁bảy	-10.5856
▁Jo	-10.5856
ử	-10.5858
▁nát	-10.5858
▁Mitsubishi	-10.5865
▁Si	-10.5867
ự	-10.5868
▁bơm	-10.5875
▁uỷ	-10.5879
▁Costa	-10.5879
▁rỉ	-10.5879
▁dời	-10.5879
▁mặn	-10.5888
▁Jack	-10.5892
▁Tuyết	-10.5897
▁30%	-10.5902
▁Hay	-10.5907
▁chăng	-10.5911
▁kem	-10.5914
▁Klopp	-10.5918
▁thuần	-10.5921
ễ	-10.5921
TS	-10.5935
▁Abe	-10.5962
▁Phật	-10.598
25	-10.5983
▁nha	-10.5985
75	-10.5991
▁Roma	-10.6001
▁(2	-10.6011
▁Grab	-10.6012
ner	-10.6018
▁46	-10.6021
▁biê	-10.6022
▁đớn	-10.6025
▁Thăng	-10.6039
-5	-10.604
▁nhường	-10.6071
by	-10.6072
▁kiềm	-10.6074
▁Pogba	-10.6079
▁Thạch	-10.608
▁VPF	-10.6104
▁2000	-10.612
ây	-10.6121
▁thâ	-10.6124
á	-10.6124
▁Dầu	-10.613
▁Máy	-10.6137
▁dạo	-10.6138
▁Thần	-10.6141
▁dâng	-10.6142
▁75	-10.6151
▁xà	-10.6155
▁lậu	-10.6156
▁nhan	-10.6159
▁chả	-10.6165
▁VTV	-10.6168
Họ	-10.617
▁Chinh	-10.6176
▁George	-10.6178
▁rể	-10.6179
từ	-10.6187
uổi	-10.6197
▁bông	-10.62
ầy	-10.6206
▁Qu	-10.6213
▁lặp	-10.6223
▁Phụ	-10.6227
▁cậy	-10.6228
▁nhậu	-10.6229
▁Căn	-10.6232
▁QH	-10.6235
ôn	-10.6237
▁UB	-10.6243
▁khơi	-10.6251
ời	-10.6259
▁xoắn	-10.627
▁Cai	-10.6272
▁nụ	-10.6277
▁mỏng	-10.6279
▁Quyền	-10.6289
▁website	-10.6293
ồn	-10.6298
ent	-10.63
▁rộn	-10.63
▁Pep	-10.6306
▁khoan	-10.6309
▁Tăng	-10.6311
▁Ku	-10.6314
per	-10.6324
▁cạn	-10.6324
▁Pompeo	-10.6325
ler	-10.6333
▁Quỹ	-10.6343
▁gãy	-10.6345
▁tím	-10.635
▁Bu	-10.6351
▁Trao	-10.6353
▁soạn	-10.6355
ửa	-10.6359
▁trươ	-10.636
▁rèn	-10.6371
▁Trấn	-10.6372
▁lồng	-10.638
ọ	-10.6382
▁mộng	-10.6383
▁ván	-10.6401
▁lão	-10.6405
▁2013,	-10.6419
▁Nhã	-10.6423
Việc	-10.6431
▁phô	-10.6434
▁nại	-10.6436
▁Florida	-10.6441
▁hot	-10.6452
▁ngưng	-10.6454
he	-10.6455
▁Giấy	-10.6456
ấp	-10.6458
▁Qatar	-10.646
▁email	-10.6474
▁No	-10.6487
▁Tri	-10.6498
min	-10.6498
▁65	-10.6503
▁Thấ	-10.6509
▁à	-10.6509
ã	-10.6526
▁Ô	-10.6533
ut	-10.6539
▁43	-10.6542
▁côn	-10.6547
▁Vũng	-10.6551
▁Thạnh	-10.6554
▁ồn	-10.6561
▁Đôi	-10.6563
ể	-10.6564
bu	-10.6573
les	-10.6575
▁VCK	-10.6577
▁giơ	-10.6579
dy	-10.6588
▁mũ	-10.6588
17	-10.6589
▁thắn	-10.6589
Z	-10.6592
ẻ	-10.6603
▁Venezuela	-10.6606
▁thoáng	-10.6606
▁lùng	-10.6606
▁bẩn	-10.6611
▁phiền	-10.6613
▁mốt	-10.6614
▁Jordan	-10.6615
▁Hollywood	-10.6625
▁Khang	-10.6628
▁CR	-10.6628
▁Yu	-10.6634
▁Kia	-10.6645
▁lường	-10.667
2,	-10.6679
▁Thêm	-10.6687
▁chay	-10.6689
▁Tường	-10.6691
▁tống	-10.6699
▁Sỹ	-10.6731
▁thoảng	-10.6732
▁Bill	-10.6736
▁42	-10.6738
▁sạt	-10.675
18	-10.676
gan	-10.6761
▁Kiếm	-10.6774
▁xô	-10.6775
▁nô	-10.6777
▁bút	-10.6781
ek	-10.6788
▁xi	-10.6802
▁cuồng	-10.6808
ề	-10.6809
▁sô	-10.6811
▁hiển	-10.6817
▁Uyên	-10.6822
▁Chân	-10.6827
▁Cố	-10.6829
▁hòn	-10.6832
▁tiễn	-10.6842
▁Chợ	-10.6844
▁bỗng	-10.6846
▁liveshow	-10.6846
▁cúm	-10.6849
-0	-10.6851
▁(19	-10.6856
▁rẽ	-10.6862
/2016	-10.6875
ev	-10.688
ker	-10.6881
ắp	-10.6882
our	-10.6883
▁Bar	-10.6884
▁Asian	-10.6889
▁Xuất	-10.689
▁Tin	-10.6891
▁1990	-10.6894
▁lu	-10.6904
▁3-1	-10.6909
▁manh	-10.6914
▁Han	-10.6921
▁Tre	-10.6928
▁dán	-10.6936
▁rủ	-10.6939
▁container	-10.6944
tion	-10.6953
▁tụng	-10.6959
▁khao	-10.697
55	-10.697
▁Sam	-10.6974
▁van	-10.6975
▁Bây	-10.6975
▁2022	-10.6976
▁Bầu	-10.6976
▁Cập	-10.6986
▁kiệt	-10.6988
▁f	-10.7
xin	-10.7009
▁Corona	-10.7028
▁TQ	-10.7028
▁tháp	-10.7028
ver	-10.7032
▁lui	-10.7034
▁gũi	-10.7042
▁Hiển	-10.7048
ac	-10.7049
▁thầm	-10.7053
▁Trăng	-10.7073
▁Bé	-10.7073
▁hận	-10.7077
▁tour	-10.7082
▁xưng	-10.7087
▁xao	-10.7091
▁News	-10.7093
49	-10.7113
TV	-10.7121
▁ngặt	-10.7122
▁dẹp	-10.7127
▁44	-10.7132
▁bạ	-10.7132
▁răn	-10.7144
tin	-10.7171
▁thâm	-10.7181
mon	-10.7186
▁Xuyên	-10.7188
▁Lạt	-10.7191
▁cắm	-10.7209
▁Ibrahimovic	-10.7213
nam	-10.7218
▁Bích	-10.7221
▁xẻ	-10.7223
▁Cảng	-10.7238
q	-10.724
▁51	-10.7243
Ông	-10.7247
men	-10.7247
ex	-10.7252
▁Chắc	-10.7252
▁đoan	-10.7258
▁vóc	-10.7261
▁Tôn	-10.7262
▁Daniel	-10.7265
▁(4	-10.7266
▁Mã	-10.7281
/2014	-10.7283
ion	-10.7284
ảnh	-10.7298
▁BHXH	-10.7299
▁KH	-10.7303
ấu	-10.7303
ab	-10.7307
▁lúa	-10.7307
▁Kiến	-10.7313
▁Diego	-10.7314
▁Tới	-10.7323
che	-10.7329
▁gom	-10.7329
▁tùng	-10.7336
13	-10.7353
▁giò	-10.7356
▁Chuyện	-10.7357
▁Nguồn	-10.7359
▁Tác	-10.7359
▁tần	-10.7363
▁sụp	-10.7365
▁mèo	-10.7373
▁Mục	-10.7376
▁Vòng	-10.7382
▁léo	-10.7385
ớ	-10.7387
▁điên	-10.7404
▁Tên	-10.7411
▁sợi	-10.7426
▁đấm	-10.7434
▁Wi	-10.7436
est	-10.7447
35	-10.7454
▁nàn	-10.7454
▁COVID	-10.7458
▁nghiêng	-10.7461
▁Giáng	-10.7467
▁cởi	-10.7473
one	-10.7475
▁nã	-10.7475
▁King	-10.748
▁Sức	-10.7497
▁khe	-10.7503
▁chửi	-10.7509
▁cong	-10.7512
▁41	-10.7512
wi	-10.7523
▁bô	-10.7555
▁Bạc	-10.7582
▁Duyên	-10.7584
▁tước	-10.7589
▁lề	-10.7594
▁rò	-10.76
ă	-10.76
▁Lạp	-10.761
▁khoáng	-10.7612
ell	-10.7613
ác	-10.7636
▁má	-10.7641
CP	-10.7642
▁47	-10.7642
▁xỉ	-10.7646
▁Vladimir	-10.7651
▁Khắc	-10.7657
▁Sun	-10.7681
▁SARS	-10.7698
▁Cam	-10.7703
▁Moon	-10.7705
▁mòn	-10.771
▁trân	-10.7714
ũ	-10.7716
▁ốm	-10.7725
▁Cương	-10.7725
ber	-10.7726
▁Liêu	-10.7726
▁Los	-10.7727
anh	-10.7727
▁xích	-10.7732
▁ghé	-10.7736
▁Quế	-10.7736
ven	-10.7739
zi	-10.774
▁đắn	-10.775
▁trắc	-10.7753
▁còi	-10.7753
ăng	-10.7761
NH	-10.7762
▁Microsoft	-10.7762
▁Chồng	-10.7762
sta	-10.7775
▁Mu	-10.7779
▁chim	-10.7788
▁sedan	-10.7794
▁viê	-10.7796
▁mò	-10.7799
CN	-10.7808
/2015	-10.7815
▁tễ	-10.7817
▁Sân	-10.7821
PC	-10.7831
we	-10.7831
uyên	-10.784
▁2-3	-10.7844
▁chư	-10.7847
ừng	-10.7854
▁Barack	-10.7864
▁Conte	-10.787
▁bắp	-10.7871
ầu	-10.7879
▁túng	-10.788
▁Góc	-10.7887
ger	-10.7903
▁Tờ	-10.7905
▁Áo	-10.7907
Ng	-10.7907
▁Oanh	-10.7908
▁Lầu	-10.7909
▁Sản	-10.7919
▁điền	-10.7924
ty	-10.7932
án	-10.7935
-8	-10.7941
▁Huệ	-10.7945
ill	-10.7957
▁Ali	-10.7958
ộ	-10.7964
▁Android	-10.7972
ường	-10.7974
▁Cậu	-10.7986
ura	-10.7987
▁Ad	-10.7992
▁Lạc	-10.7995
▁Zealand	-10.8005
up	-10.8015
Con	-10.8018
▁quái	-10.802
▁UEFA	-10.8022
▁việt	-10.8037
▁bội	-10.8042
▁Johnson	-10.805
▁Jennifer	-10.8059
▁xông	-10.806
▁lướt	-10.8071
▁gác	-10.809
▁49	-10.809
▁GS	-10.8095
▁Te	-10.8095
▁đế	-10.8097
cha	-10.8107
cho	-10.8109
▁HIV	-10.811
▁đồi	-10.8126
tor	-10.814
óc	-10.8141
▁Cá	-10.8141
▁thịnh	-10.8145
ik	-10.8156
▁lưỡi	-10.8164
▁sáp	-10.8166
▁xổ	-10.8171
▁khiếp	-10.8176
Điều	-10.8179
▁Luis	-10.8193
▁BTC	-10.8194
▁chót	-10.8198
47	-10.821
ống	-10.821
ey	-10.821
▁khốc	-10.8211
ua	-10.8231
▁PS	-10.8234
res	-10.8242
▁thắc	-10.8245
eo	-10.8247
ft	-10.8257
▁ngoan	-10.8265
▁QL	-10.8282
▁sạc	-10.8287
▁Amazon	-10.8293
▁gầm	-10.831
▁chúa	-10.8312
▁album	-10.8315
ot	-10.8318
▁cúng	-10.8321
▁KSND	-10.8327
▁tuyết	-10.8334
▁Mạch	-10.8334
▁bổng	-10.8341
▁khôn	-10.8353
/2013	-10.8355
ew	-10.8358
▁ào	-10.8361
/2020	-10.8364
sen	-10.8364
▁2004	-10.8366
▁Min	-10.838
▁Ti	-10.8383
▁Nhiệt	-10.8383
▁Toán	-10.84
▁Nghe	-10.8423
io	-10.8426
▁lụt	-10.8429
▁2005	-10.843
▁châm	-10.8436
▁Quán	-10.8439
▁nộ	-10.8441
▁đúc	-10.8442
ze	-10.8443
▁Ju	-10.8471
▁1/8	-10.8476
▁lâ	-10.8477
▁Angeles	-10.8486
▁mày	-10.8489
Em	-10.8492
▁chiê	-10.8492
▁khớp	-10.8493
▁vạch	-10.8495
▁Croatia	-10.8497
▁ngạch	-10.8509
ỡ	-10.8516
▁á	-10.8523
▁2003	-10.8524
▁đán	-10.8525
▁li	-10.8544
▁ngựa	-10.8547
▁bộc	-10.8551
22	-10.8555
▁đè	-10.8562
▁Sch	-10.8563
▁kề	-10.8581
▁Sông	-10.8581
ud	-10.8582
▁long	-10.8593
▁láng	-10.8594
▁NN	-10.8597
▁ngõ	-10.8602
ana	-10.8603
▁buông	-10.8603
▁ghen	-10.8612
▁NATO	-10.8622
▁rộ	-10.8627
▁Thí	-10.8628
▁56	-10.8628
▁chọc	-10.8638
▁Rồi	-10.8643
▁nôn	-10.8647
ss	-10.8649
▁đằng	-10.8649
Công	-10.865
▁Louis	-10.8653
▁đệ	-10.8653
▁vú	-10.8674
▁ASIAD	-10.8682
11	-10.8689
▁Thiêm	-10.87
▁Ne	-10.8743
ez	-10.8753
▁radar	-10.8757
▁Lắk	-10.8759
14	-10.8759
▁Giữa	-10.876
▁Ber	-10.8767
▁(3	-10.8776
▁Rịa	-10.8776
▁đũa	-10.8776
▁PGS	-10.8782
▁bể	-10.8786
▁tò	-10.8786
Đó	-10.8791
▁đếm	-10.8797
▁đáy	-10.8797
▁hạch	-10.8799
ạch	-10.8812
ấn	-10.8818
▁cm	-10.8825
▁tụt	-10.8825
▁Phùng	-10.8826
▁golf	-10.883
▁Ireland	-10.8835
▁Quyên	-10.8837
▁Phút	-10.8839
▁Miss	-10.8844
▁Đánh	-10.8846
▁Nm	-10.8846
▁đói	-10.8849
áng	-10.8851
▁Trúc	-10.886
▁Fa	-10.8861
▁Za	-10.8871
▁lê	-10.8873
ney	-10.8874
0%	-10.8875
▁lũy	-10.8883
▁Napoli	-10.8901
AM	-10.8912
trong	-10.8917
EC	-10.8923
▁2002	-10.893
▁Har	-10.8931
▁Sen	-10.8932
▁ngón	-10.8935
▁Sư	-10.8942
age	-10.8945
(	-10.895
▁buồng	-10.8952
rs	-10.8958
Quảng	-10.8965
ĩ	-10.8966
▁no	-10.8966
▁xá	-10.8969
08	-10.8974
▁tạc	-10.8974
▁nấm	-10.8982
▁1,2	-10.8988
▁Sanchez	-10.8991
ate	-10.8993
▁mâm	-10.8995
▁Star	-10.9
▁Bundesliga	-10.9003
▁Texas	-10.9003
▁52	-10.9008
-7	-10.9008
br	-10.9015
▁Uy	-10.9019
▁Thầy	-10.9028
den	-10.9037
▁Môi	-10.9056
quận	-10.9065
▁nghiệt	-10.9065
▁Vệ	-10.9066
tra	-10.9069
▁Diệp	-10.9077
▁64	-10.9082
▁vĩnh	-10.9089
▁trán	-10.9091
▁nuối	-10.9106
ức	-10.9107
▁Red	-10.9119
-10	-10.9131
▁vặt	-10.9131
39	-10.9136
▁kiều	-10.9143
Á	-10.9144
▁70%	-10.9151
▁Sha	-10.9152
▁tràng	-10.9164
▁dũng	-10.9173
▁tạt	-10.9176
▁Sóc	-10.9184
huyện	-10.9187
ánh	-10.9195
▁móng	-10.9206
▁giềng	-10.921
ye	-10.9214
▁Ngược	-10.9223
▁giông	-10.9224
-9	-10.9224
▁Ả	-10.9225
▁cáp	-10.9237
PTNT	-10.9241
▁Mà	-10.9255
?”	-10.9261
38	-10.9266
▁vịnh	-10.9276
▁vitamin	-10.9278
Index	-10.9278
▁54	-10.9282
▁xơ	-10.9287
-6	-10.9291
▁xôn	-10.9301
▁Camp	-10.9304
▁sướng	-10.9316
▁soi	-10.9318
▁đệm	-10.9321
suýt	-10.9322
▁Am	-10.9328
▁tọa	-10.9335
▁giàn	-10.934
▁America	-10.9342
03	-10.9354
▁Nissan	-10.9365
▁2019.	-10.9366
Ph	-10.9367
▁ghét	-10.9372
88	-10.9381
▁màng	-10.9384
ff	-10.9393
▁Pha	-10.9395
▁hiếu	-10.9398
▁SHB	-10.9399
▁hố	-10.9405
▁40%	-10.942
tu	-10.9426
▁Boeing	-10.9441
▁Peter	-10.9441
▁Pe	-10.9458
Bình	-10.9458
▁Super	-10.9461
▁One	-10.9464
▁Instagram	-10.9472
xã	-10.949
▁Villa	-10.9494
▁voi	-10.9498
▁tơ	-10.9499
▁luồng	-10.9499
▁chôn	-10.95
▁Đá	-10.9502
▁thọ	-10.9509
▁xôi	-10.9518
▁Wa	-10.952
▁Floyd	-10.9523
ách	-10.9523
1,	-10.9524
▁râ	-10.9528
▁rung	-10.9531
▁Chứng	-10.9531
16	-10.9535
▁thánh	-10.9539
▁Black	-10.9541
ỗ	-10.9546
▁nồi	-10.955
07	-10.9554
▁Từng	-10.9559
mm	-10.956
Bà	-10.956
▁lí	-10.9577
▁Sevilla	-10.958
▁mọc	-10.959
làm	-10.9591
ino	-10.9595
▁xám	-10.9617
▁Max	-10.9621
▁thằng	-10.9626
▁lót	-10.9632
▁lắc	-10.9643
aw	-10.9644
▁Hiểu	-10.9654
85	-10.9659
ẹ	-10.9679
Sau	-10.968
▁Land	-10.9681
TB	-10.9684
▁tặc	-10.9684
▁Mon	-10.9692
▁Colombia	-10.9696
▁đuối	-10.9696
▁80%	-10.9699
▁dỗ	-10.9703
▁Điền	-10.9703
com	-10.9703
▁Vịnh	-10.971
▁Tim	-10.9713
▁Maradona	-10.9716
kin	-10.9716
tương	-10.9718
fi	-10.9721
▁nghênh	-10.9723
▁ớt	-10.9728
wan	-10.973
▁THCS	-10.9735
▁thám	-10.9736
▁Gr	-10.9737
▁Hoà	-10.9738
▁Online	-10.9741
▁nạp	-10.9745
ềm	-10.9748
khủng	-10.9759
▁sương	-10.9763
▁CNN	-10.9768
ll	-10.9769
▁Tra	-10.9773
▁bệ	-10.9774
▁mắm	-10.9776
46	-10.9777
▁dải	-10.9781
▁chìa	-10.9783
▁Victoria	-10.9788
Benz	-10.979
mua	-10.9793
56	-10.9793
az	-10.9804
sk	-10.9806
▁hét	-10.9815
MA	-10.9818
▁Audi	-10.982
▁Vios	-10.9821
▁TV	-10.9822
▁diê	-10.9825
ực	-10.9838
▁bấy	-10.9838
ers	-10.9841
▁Ge	-10.9842
▁đắng	-10.9845
▁Group	-10.9846
▁Xem	-10.9848
▁2,5	-10.9851
48	-10.9852
IA	-10.9852
▁lau	-10.9864
▁As	-10.9867
▁Southampton	-10.9868
▁2-2	-10.9868
▁hà	-10.9872
▁dấy	-10.9875
▁lặn	-10.9877
▁kép	-10.9879
ns	-10.988
bán	-10.9886
▁ngỏ	-10.9887
▁Hiệu	-10.9888
▁Hướng	-10.9888
▁War	-10.9891
▁Xã	-10.9894
▁ngần	-10.9901
▁oxy	-10.9905
▁hao	-10.9906
▁Wales	-10.9906
uk	-10.9914
500	-10.9918
▁Kiệt	-10.992
▁(6	-10.9922
ju	-10.9927
ren	-10.9936
▁Arab	-10.9943
!!!	-10.9944
▁cược	-10.9946
▁Saudi	-10.9946
▁nhậ	-10.9966
▁Viê	-10.9967
▁sập	-10.9967
ước	-10.9969
▁Khanh	-10.997
▁cắn	-10.9974
▁GT	-10.9976
ide	-10.9981
▁hiền	-10.9985
ữa	-10.9988
▁rớt	-10.9992
▁dưa	-10.9993
▁trailer	-10.9996
36	-11
05	-11.0005
▁vấp	-11.0007
▁tâ	-11.0019
▁Bank	-11.0019
▁Muốn	-11.0025
57	-11.0027
ải	-11.0039
▁rô	-11.0042
CS	-11.0049
▁62	-11.0051
ọc	-11.0054
▁Hiến	-11.0072
▁Chevrolet	-11.0085
▁Nou	-11.0092
▁VI	-11.0092
▁dặn	-11.0092
ku	-11.0093
▁Chấp	-11.0106
▁cưng	-11.0107
▁ĐB	-11.0116
▁showbiz	-11.0126
▁quyên	-11.0139
▁khoăn	-11.014
▁gạt	-11.0143
▁kình	-11.0145
nes	-11.0145
▁90%	-11.0147
▁hái	-11.0147
▁gạch	-11.0148
▁AI	-11.0153
▁Can	-11.0155
▁dừa	-11.0155
▁72	-11.0157
phút	-11.0167
FA	-11.0177
▁Hazard	-11.0193
du	-11.0194
▁hắn	-11.0194
▁Sử	-11.0197
▁gìn	-11.0199
▁bàng	-11.0204
▁toà	-11.0205
▁siết	-11.0208
▁Tiếng	-11.0225
od	-11.0229
▁nhặt	-11.0235
▁Biết	-11.0238
▁thạch	-11.0246
▁53	-11.0246
▁Môn	-11.0252
▁xoa	-11.0253
ham	-11.0258
▁cọc	-11.0266
iết	-11.0278
lít	-11.0285
▁Tay	-11.0286
59	-11.0295
▁Shi	-11.0296
▁Kha	-11.0302
28	-11.0303
▁125	-11.0305
▁Tinh	-11.0308
▁phế	-11.032
những	-11.0324
▁900	-11.0325
▁ùn	-11.034
▁63	-11.0346
art	-11.0346
▁tẩu	-11.0358
▁ngo	-11.0367
▁băn	-11.0387
and	-11.0394
ier	-11.0396
▁Ya	-11.0406
▁phơi	-11.0406
▁Cú	-11.0412
▁Newcastle	-11.042
▁nếp	-11.042
TC	-11.0426
▁Motor	-11.0432
AS	-11.0433
▁tạng	-11.0434
▁Mc	-11.044
▁ni	-11.0442
▁Riot	-11.0444
ovic	-11.0445
▁tóm	-11.0448
▁ham	-11.0451
lia	-11.0456
▁robot	-11.0462
▁hoi	-11.0464
▁Quận	-11.0476
uô	-11.0489
▁Củ	-11.0499
▁SH	-11.0501
▁quầy	-11.0512
▁Pennsylvania	-11.0518
▁ôn	-11.052
▁Cung	-11.0521
▁Valencia	-11.0525
dan	-11.0526
▁CA	-11.0533
▁Saint	-11.0539
ps	-11.054
%/	-11.054
ầm	-11.0546
▁trơn	-11.0556
▁xát	-11.056
▁Trẻ	-11.0561
▁gót	-11.0567
▁ngoạn	-11.0567
▁Del	-11.0571
▁China	-11.0573
▁Yo	-11.0583
Với	-11.0585
▁karaoke	-11.0588
▁giã	-11.0594
▁Kỷ	-11.0606
▁Khải	-11.0607
gu	-11.0615
▁Hillary	-11.0617
06	-11.0618
▁Loại	-11.0621
▁vỉa	-11.0645
ới	-11.0646
▁ngọc	-11.0653
▁Ryan	-11.0654
▁Gea	-11.0657
▁xót	-11.0659
▁2020.	-11.0668
▁Gareth	-11.0674
▁Cor	-11.0675
▁cỗ	-11.0679
▁mă	-11.0683
▁57	-11.0689
▁Ke	-11.0697
▁internet	-11.0702
▁bẫy	-11.071
ồ	-11.0712
iểu	-11.0721
▁1997	-11.0733
đã	-11.0739
đường	-11.0742
ắn	-11.0745
▁doping	-11.075
▁nghịch	-11.0756
ella	-11.0761
▁đặn	-11.0765
▁giọt	-11.0767
▁VKS	-11.0774
▁1.000	-11.0779
▁Đồn	-11.0784
▁Bernabeu	-11.0788
▁Times	-11.0791
▁lân	-11.0798
▁85	-11.0822
ột	-11.084
-15	-11.0845
▁Melania	-11.0846
ằn	-11.0855
ounce	-11.0855
▁NG	-11.0858
▁quạt	-11.0861
all	-11.0868
AC	-11.0869
số	-11.0878
▁dại	-11.0878
ix	-11.0892
44	-11.0903
▁iOS	-11.0912
▁đả	-11.0914
▁bún	-11.0917
Man	-11.0922
IC	-11.0923
ích	-11.0927
NĐ	-11.0931
tan	-11.0933
▁Tyson	-11.0934
▁mạ	-11.0938
cc	-11.0945
▁bì	-11.0952
▁350	-11.0953
▁Mal	-11.0969
24	-11.0973
▁rải	-11.0974
▁ngẫu	-11.0978
▁Cấp	-11.0984
▁58	-11.0995
▁êm	-11.0995
▁Monaco	-11.1
gen	-11.1
▁nén	-11.1004
▁chéo	-11.1007
▁nọ	-11.1007
▁Per	-11.1017
▁bư	-11.1019
ight	-11.1024
▁60%	-11.1025
▁vở	-11.1027
▁Tehran	-11.1029
▁(5	-11.103
▁nươ	-11.103
▁BKS	-11.1037
▁sườn	-11.1039
tro	-11.1043
▁Lexus	-11.1044
▁Ferrari	-11.1044
ục	-11.1046
CC	-11.105
ồng	-11.105
▁khan	-11.1062
▁Đang	-11.1065
▁Fox	-11.1069
▁cốc	-11.1073
▁derby	-11.1074
▁Silva	-11.1081
▁Hoan	-11.1082
VFF	-11.1087
):	-11.1089
▁khuất	-11.1095
▁hả	-11.1097
▁tản	-11.1108
▁lõi	-11.1126
▁5%	-11.1133
▁kiê	-11.1133
▁úy	-11.1133
▁ranh	-11.1133
▁LED	-11.1135
▁thấm	-11.1136
▁nhộn	-11.1138
▁đạc	-11.1139
ble	-11.1141
▁futsal	-11.1141
ắng	-11.1144
▁Món	-11.1145
▁Uruguay	-11.1148
▁Xé	-11.1151
CoV	-11.1152
41	-11.1153
har	-11.1157
tha	-11.1157
▁dạn	-11.1163
▁lẫy	-11.1164
▁HS	-11.1164
ara	-11.1165
▁Sergio	-11.1171
qu	-11.1173
▁Ferguson	-11.1178
▁ngỡ	-11.1179
các	-11.1184
▁Sir	-11.1185
▁Rodriguez	-11.1186
line	-11.1188
?"	-11.1189
▁Cu	-11.1194
ria	-11.1196
vin	-11.1198
89	-11.1202
ani	-11.1205
▁né	-11.1206
34	-11.1207
▁man	-11.121
▁nhục	-11.1217
▁Diệu	-11.1242
68	-11.1244
▁tuý	-11.1246
▁0-0	-11.1247
ass	-11.125
ển	-11.1251
▁lột	-11.1252
▁phẫn	-11.1261
▁Tuyến	-11.1262
▁67	-11.1263
▁Jae	-11.1264
▁cuô	-11.1265
▁đùi	-11.1268
▁We	-11.1269
▁hê	-11.1277
▁Bức	-11.128
▁Phố	-11.1284
▁MU	-11.1286
▁Kỹ	-11.1292
Bank	-11.1293
▁tám	-11.1296
▁Nạn	-11.1299
▁si	-11.1306
▁0-1	-11.1307
▁59	-11.1312
▁Fi	-11.1316
▁VinFast	-11.1322
ity	-11.133
▁giang	-11.1332
ld	-11.1343
▁Quyến	-11.1346
▁Bảng	-11.1348
▁1998	-11.1355
▁cọ	-11.136
▁Khán	-11.1367
▁360	-11.1371
nếu	-11.1385
▁Xanh	-11.1386
▁Lượng	-11.1387
42	-11.1389
▁Thomas	-11.1398
▁Chuyến	-11.1403
▁Vin	-11.1406
▁chép	-11.1408
▁ngất	-11.1415
▁dãy	-11.1415
▁chiên	-11.1421
▁Suốt	-11.1422
▁play	-11.1423
ten	-11.1428
▁Huyện	-11.1436
▁vạn	-11.1438
▁Com	-11.1441
▁xé	-11.146
▁nhá	-11.147
▁Kiev	-11.1475
61	-11.1477
▁Dĩ	-11.1482
▁Liệu	-11.1492
▁rổ	-11.1492
▁AT	-11.1497
ris	-11.1502
ằm	-11.1503
▁Trời	-11.1506
▁Bách	-11.1513
67	-11.1519
oanh	-11.1522
▁kẽ	-11.153
▁com	-11.1537
▁Kurd	-11.1543
▁Fu	-11.155
▁Note	-11.1551
▁1999	-11.1552
▁110	-11.1561
02	-11.1564
▁Ranger	-11.1564
▁khuya	-11.1566
xe	-11.157
ẫn	-11.1576
▁Anfield	-11.1578
▁tạ	-11.1581
▁Thất	-11.1588
63	-11.1599
ớp	-11.16
▁Thoại	-11.1607
▁phẳng	-11.1608
▁25%	-11.161
len	-11.1613
▁tựu	-11.1625
ội	-11.1627
▁Young	-11.163
▁Mayweather	-11.1631
▁Justin	-11.1631
26	-11.1634
▁nhã	-11.1638
▁Chile	-11.164
▁Cuba	-11.164
▁âu	-11.1647
▁phàn	-11.1648
▁tú	-11.1651
hu	-11.1654
yo	-11.1655
▁Harris	-11.1662
▁Fe	-11.1668
01	-11.167
▁rét	-11.1671
ăm	-11.1676
▁Khác	-11.1681
▁1,3	-11.1684
▁Đệ	-11.1689
▁tốp	-11.1695
▁ủ	-11.17
2.	-11.1703
▁cóc	-11.1707
▁bồn	-11.1709
QĐ	-11.1712
▁Bangkok	-11.1717
▁Val	-11.1721
ạo	-11.1723
▁Giống	-11.1726
▁Her	-11.1728
▁Adam	-11.1729
ắm	-11.1729
▁ong	-11.1738
▁79	-11.1742
▁Rạng	-11.1749
▁vuông	-11.1749
▁tí	-11.1752
SC	-11.1753
amp	-11.1754
▁Solskjaer	-11.1757
uri	-11.1758
iện	-11.176
▁khoai	-11.1766
▁Bang	-11.1772
▁Ed	-11.1774
▁TPHCM	-11.1778
▁Kane	-11.1779
▁Bắt	-11.1782
ệt	-11.1785
▁1995	-11.1787
▁ruộng	-11.1789
43	-11.1789
SA	-11.1792
▁trệ	-11.1793
ứ	-11.1795
▁1982	-11.1806
▁nâu	-11.1809
53	-11.1824
ear	-11.1826
▁khái	-11.1826
▁Richard	-11.1837
▁bực	-11.1847
▁BT	-11.1851
▁họng	-11.1858
▁rệt	-11.1861
▁LĐ	-11.1863
▁Cửa	-11.1863
▁Kar	-11.1872
29	-11.1874
▁VNG	-11.1874
▁hàn	-11.1876
▁vứt	-11.1878
hơn	-11.188
úc	-11.1889
▁VKSND	-11.1893
▁găng	-11.1896
cer	-11.1905
92	-11.1907
▁Rập	-11.1914
▁and	-11.1915
▁vịt	-11.1916
▁lọ	-11.1916
iz	-11.1917
▁Vua	-11.1924
▁trơ	-11.1925
▁2001	-11.1925
▁Nơi	-11.1925
▁ê	-11.1926
▁Green	-11.1926
▁Pakistan	-11.1933
▁nứt	-11.1934
▁Pri	-11.1937
98	-11.1937
▁thỉnh	-11.1941
▁BIDV	-11.1947
33	-11.1948
hy	-11.1954
▁vỗ	-11.196
Mọi	-11.1967
77	-11.1968
▁1996	-11.1968
zz	-11.1976
▁Kon	-11.1979
▁Giọ	-11.1983
Thật	-11.1984
▁đống	-11.199
▁Chất	-11.1999
▁chớp	-11.2002
san	-11.2004
▁3-4	-11.2019
▁tua	-11.2021
▁ráo	-11.2025
Hiện	-11.2026
▁cước	-11.2037
▁nhọn	-11.2039
▁ngâm	-11.204
▁Vô	-11.2051
ub	-11.2055
mer	-11.2057
69	-11.2062
▁Pan	-11.2074
ờ	-11.2077
▁Lamborghini	-11.208
▁gập	-11.2083
ẹt	-11.2083
tal	-11.2093
▁choáng	-11.2095
gia	-11.2097
▁Trâm	-11.2099
▁bách	-11.2123
▁Cửu	-11.2125
▁Hân	-11.2129
▁Georgia	-11.2129
▁Dược	-11.213
▁khoá	-11.2143
▁nản	-11.2146
▁66	-11.2148
▁/	-11.215
▁ĐBQH	-11.2154
▁61	-11.2158
lic	-11.2158
▁thèm	-11.2162
van	-11.2164
AT	-11.2168
▁1993	-11.2173
▁chen	-11.2178
09	-11.2179
▁đạm	-11.2179
▁3-2	-11.2192
▁quấy	-11.2198
▁PVF	-11.2204
▁bóp	-11.2218
▁Khó	-11.2227
52	-11.2232
ock	-11.2233
ess	-11.2234
▁am	-11.2234
đại	-11.2241
▁bơ	-11.2243
▁nhược	-11.2246
▁180	-11.2247
▁bo	-11.2249
▁130	-11.2249
▁măng	-11.2252
xi	-11.2253
▁lung	-11.2254
▁Crimea	-11.2254
chưa	-11.2265
▁lộng	-11.2267
▁mobile	-11.227
▁suối	-11.2272
công	-11.2272
èo	-11.2272
WHO	-11.2273
▁Ab	-11.2274
▁Đàn	-11.2274
▁dồi	-11.228
▁Ver	-11.2284
▁NDT	-11.2287
phi	-11.229
ớc	-11.2291
CHDCND	-11.2296
▁2025	-11.2302
▁gam	-11.2307
▁Marc	-11.2308
▁Khuê	-11.231
▁kè	-11.2315
▁nư	-11.2318
▁Nghiêm	-11.2329
▁Fortuner	-11.2329
giữa	-11.2333
▁Lời	-11.2333
ite	-11.2335
-16	-11.2337
ặng	-11.2339
ini	-11.2348
ack	-11.2348
▁cớ	-11.2349
▁1992	-11.2349
▁Idol	-11.2354
▁Khởi	-11.2354
ei	-11.2357
▁Lại	-11.2363
▁Brad	-11.2368
▁đọng	-11.2368
▁ren	-11.2378
▁đèo	-11.2381
▁Xu	-11.2384
ét	-11.2388
▁khía	-11.2389
▁khiêm	-11.239
ning	-11.239
▁Vạn	-11.2397
▁giặt	-11.2397
▁se	-11.24
▁Mạc	-11.24
ova	-11.2401
▁nhát	-11.2402
▁té	-11.2405
▁giục	-11.2406
ish	-11.2409
37	-11.2411
▁triều	-11.2423
▁(7	-11.2429
▁Bra	-11.2433
▁rưỡi	-11.2439
▁Antonio	-11.2439
▁vượng	-11.2449
▁TX	-11.245
▁cám	-11.2455
ỳ	-11.2456
▁chè	-11.2468
▁trăng	-11.2468
▁xì	-11.2469
▁1,7	-11.247
▁1/3	-11.2471
▁Berlin	-11.2475
▁Che	-11.2476
▁Pleiku	-11.2482
▁bỉ	-11.2485
thùng	-11.2486
▁Màn	-11.2493
▁xăm	-11.25
▁giòn	-11.25
▁nương	-11.2504
▁Dư	-11.2506
▁Lampard	-11.2507
▁Sin	-11.251
ảm	-11.2515
MS	-11.2523
▁Lukaku	-11.2525
iều	-11.2533
▁Emirates	-11.2533
ari	-11.2536
ola	-11.2547
▁Khôi	-11.255
▁Tiêu	-11.2551
yan	-11.2563
ox	-11.2563
▁bôi	-11.2568
▁Lĩnh	-11.2569
▁VH	-11.2575
▁Rio	-11.2577
▁1980	-11.2584
▁MTV	-11.2584
▁hẻm	-11.2585
▁ghê	-11.2585
▁Salah	-11.2585
▁III	-11.2587
▁girl	-11.2587
▁Becamex	-11.2589
ation	-11.2591
▁MH	-11.2596
▁Khá	-11.2598
▁Vận	-11.2602
▁ngó	-11.2608
CB	-11.2608
▁Show	-11.2612
▁nốt	-11.2615
mar	-11.2617
▁Taylor	-11.262
▁nhả	-11.262
▁nan	-11.2627
▁Triển	-11.2628
ero	-11.2642
hờ	-11.2643
▁Steven	-11.2646
▁rồng	-11.2646
▁kĩ	-11.2646
32	-11.2652
OS	-11.2657
▁đc	-11.2657
siêu	-11.266
▁lánh	-11.2662
58	-11.2663
▁hổng	-11.2665
▁Cán	-11.2669
▁For	-11.2671
▁Anthony	-11.2671
▁Đứ	-11.2672
▁Nhạc	-11.2676
▁Eric	-11.2681
▁chanh	-11.2685
66	-11.2685
▁Ramos	-11.2689
òng	-11.2695
▁háo	-11.2695
▁Trì	-11.2695
▁Vùng	-11.2698
CDC	-11.2702
ano	-11.2704
▁Mor	-11.2707
87	-11.2712
ít	-11.2715
▁Đảo	-11.2716
▁chô	-11.2717
ake	-11.2722
▁Camry	-11.2724
▁Tứ	-11.2729
▁Bridge	-11.2733
▁Khê	-11.2736
▁Mua	-11.2743
gue	-11.2744
sco	-11.2746
▁Viết	-11.2756
/2012	-11.2759
▁BĐ	-11.2763
▁Giai	-11.2766
▁LĐBĐ	-11.2768
▁ủi	-11.2768
▁Lục	-11.2771
▁TR	-11.2772
bao	-11.2773
▁Gò	-11.2774
▁Lạng	-11.2775
▁Mario	-11.2779
▁Thuế	-11.278
▁1,6	-11.2785
▁catwalk	-11.2785
ươ	-11.2786
▁thiê	-11.2788
▁tà	-11.2789
rin	-11.2805
▁cháo	-11.2806
▁Ancelotti	-11.2812
chỉ	-11.2814
54	-11.2814
que	-11.2821
ồi	-11.2827
▁CX	-11.2828
▁Wang	-11.2837
▁ki	-11.284
▁lanh	-11.2843
tự	-11.2848
▁68	-11.2866
▁Las	-11.2867
▁(10	-11.2875
▁Barr	-11.2878
Trước	-11.288
▁ngửa	-11.2884
▁triết	-11.2887
.1	-11.289
62	-11.2896
▁xuâ	-11.2902
▁Sky	-11.2903
stan	-11.2903
ice	-11.2905
▁mồi	-11.2909
▁Jones	-11.291
▁xáo	-11.2911
▁lư	-11.2927
▁chậu	-11.2928
▁Or	-11.2929
▁77	-11.293
▁Moyes	-11.2936
▁tivi	-11.2937
▁táng	-11.2943
▁BOT	-11.2945
ser	-11.2952
Royce	-11.2953
▁Trạch	-11.2955
78	-11.296
▁99	-11.2964
▁Pence	-11.2964
ect	-11.2965
▁ngu	-11.2971
▁Afghanistan	-11.2972
rus	-11.298
OC	-11.298
▁dai	-11.2991
▁hức	-11.2992
▁ướt	-11.3008
▁Cannes	-11.3008
▁4-0	-11.3024
▁tia	-11.3025
▁(8	-11.3026
▁Chàng	-11.3029
Bạn	-11.3033
▁Bánh	-11.3033
▁Pra	-11.3035
Tuy	-11.3051
▁vành	-11.3052
qua	-11.3053
86	-11.3054
kov	-11.3055
CO	-11.3062
nhôm	-11.3062
BS	-11.3063
▁Chan	-11.3071
▁Khương	-11.3072
bứt	-11.3074
ett	-11.3075
hạ	-11.3076
sha	-11.3076
ita	-11.3079
▁Ozil	-11.308
▁71	-11.3088
▁01	-11.309
▁chuối	-11.3091
▁Mac	-11.3092
▁Chữ	-11.3093
▁bênh	-11.3095
Ba	-11.3102
▁Vẫ	-11.3115
▁dè	-11.312
▁Won	-11.3128
▁kệ	-11.3128
▁Manila	-11.3135
ata	-11.3139
▁1994	-11.3147
▁Thử	-11.315
▁xảo	-11.3154
▁Vượng	-11.3155
▁bă	-11.3156
era	-11.3157
▁neo	-11.3158
▁viền	-11.3159
▁86	-11.3164
▁xào	-11.3174
▁160	-11.3178
zo	-11.318
▁facebook	-11.3181
▁lừng	-11.3185
▁đinh	-11.3187
▁hãm	-11.319
▁ẩu	-11.319
▁kỉ	-11.3191
▁She	-11.3194
ele	-11.3196
▁dép	-11.3199
Hã	-11.3201
▁Đoạn	-11.3208
▁mắng	-11.3209
Nhưng	-11.3217
▁Morning	-11.3217
64	-11.3228
rd	-11.3228
▁Djokovic	-11.3236
▁Beckham	-11.3236
end	-11.3243
Ở	-11.3244
▁Kevin	-11.3264
ý	-11.3266
▁Model	-11.3268
ào	-11.3268
▁diesel	-11.3273
▁iPad	-11.3273
▁Độc	-11.3279
▁Rolls	-11.33
▁Nadal	-11.3301
DL	-11.3305
76	-11.3306
▁Yêu	-11.3307
▁Khai	-11.3312
Vì	-11.3315
▁nể	-11.3323
000	-11.3326
▁140	-11.3326
▁Guillaume	-11.3328
▁Mô	-11.3331
▁trêu	-11.3332
▁Sal	-11.3333
▁FBI	-11.3334
▁Ân	-11.3338
▁văng	-11.3338
▁4-1	-11.3344
▁Tesla	-11.3347
▁Angelina	-11.3347
▁78	-11.335
▁rách	-11.335
▁Bush	-11.3358
▁khiê	-11.336
Qu	-11.3362
▁74	-11.3364
▁Czech	-11.3365
!”	-11.3371
▁Benzema	-11.3375
▁CT	-11.338
sse	-11.3383
▁(30	-11.3384
200	-11.3384
▁mập	-11.3385
▁Viễn	-11.3387
04	-11.3387
▁ao	-11.3389
&#253;	-11.3393
▁bén	-11.3394
▁EVN	-11.3398
▁2009,	-11.3401
▁ngô	-11.3401
▁Va	-11.3402
▁diệu	-11.3404
PA	-11.3405
▁quật	-11.3414
▁Nguyệt	-11.3422
net	-11.3426
▁Mil	-11.3427
Tổng	-11.344
Pháo	-11.3441
▁cu	-11.3441
ski	-11.3444
▁hu	-11.3445
-12	-11.3445
▁Armenia	-11.345
▁Chế	-11.3453
▁Post	-11.3455
▁nạ	-11.346
▁đắm	-11.3462
79	-11.3462
lon	-11.3465
▁lén	-11.3469
▁Ze	-11.347
▁Dong	-11.3492
▁CDC	-11.3495
▁lách	-11.3496
ứng	-11.3507
ùa	-11.3513
▁mịn	-11.3517
pp	-11.3517
▁81	-11.3522
▁ri	-11.3526
▁1/1	-11.3534
▁lát	-11.3534
▁nắp	-11.3539
▁thiêu	-11.3539
▁visa	-11.3544
▁Aguero	-11.3544
▁Ankara	-11.3544
▁(9	-11.3551
▁ngoặt	-11.3564
▁nhiếp	-11.3564
???	-11.3575
ữ	-11.3579
▁thắp	-11.3595
bert	-11.3596
▁vân	-11.3598
▁Arsene	-11.3602
▁2018.	-11.3603
▁mít	-11.3606
▁Mở	-11.3617
▁hơ	-11.3629
▁ru	-11.3632
▁phiêu	-11.3639
DA	-11.364
▁Volkswagen	-11.364
▁Đẫy	-11.364
▁Thai	-11.3645
▁lươ	-11.3646
ON	-11.3649
▁Palace	-11.365
27	-11.3651
▁Trở	-11.3651
▁thon	-11.3652
ớt	-11.3655
▁Bur	-11.3658
▁TDTT	-11.3659
▁dệt	-11.366
▁15%	-11.3665
▁Frank	-11.3669
khi	-11.3669
▁gai	-11.367
Từ	-11.3671
▁Catalan	-11.3678
▁vá	-11.3687
▁vòi	-11.3688
▁lữ	-11.3692
▁92	-11.3692
▁Sách	-11.3694
ssa	-11.3705
▁Lin	-11.3707
▁khỏa	-11.3707
▁Năng	-11.3712
▁Victor	-11.3716
ace	-11.3717
rt	-11.372
OO	-11.3724
▁Par	-11.3732
▁Giả	-11.3733
ance	-11.3734
▁mác	-11.3738
tức	-11.3745
▁Hỏa	-11.3765
▁(18	-11.3767
▁xịt	-11.3775
zu	-11.3779
▁Merkel	-11.3785
▁hưng	-11.3785
▁Tum	-11.3786
▁Bao	-11.3789
▁Is	-11.3793
ea	-11.3793
▁Sea	-11.3795
▁Uber	-11.3801
▁Dan	-11.3805
▁Tan	-11.3806
▁vạ	-11.3806
Nhiều	-11.3806
Nhật	-11.3806
sinh	-11.3811
▁lờ	-11.3811
▁FPT	-11.3814
▁Luân	-11.3815
▁88	-11.3824
▁Táo	-11.3831
▁protein	-11.3834
ằng	-11.3835
▁tỏi	-11.3841
là	-11.3843
Cô	-11.3843
▁Azerbaijan	-11.3843
▁bóc	-11.3846
▁Aston	-11.3847
▁Gar	-11.3848
▁Hè	-11.385
war	-11.3851
▁Duterte	-11.3853
▁1,1	-11.3858
rất	-11.3863
Vi	-11.3865
%.	-11.3866
▁Dò	-11.3867
▁Lăng	-11.3867
▁Bốn	-11.3869
▁Voice	-11.3873
▁tát	-11.3875
96	-11.3877
▁Ji	-11.3882
▁Federer	-11.3883
▁Cư	-11.3903
▁84	-11.3906
ình	-11.3906
▁bồ	-11.3912
▁tấu	-11.3915
51	-11.3916
/2020,	-11.3917
▁Kyo	-11.3918
fo	-11.392
lly	-11.392
▁phâ	-11.3921
▁mini	-11.3922
▁rảnh	-11.3924
Mo	-11.3934
▁ĐT	-11.3948
▁Jolie	-11.3952
▁69	-11.3958
▁SE	-11.3959
▁Thẩm	-11.3962
aka	-11.3968
je	-11.397
▁HC	-11.3978
Ma	-11.3982
▁Os	-11.3988
cựu	-11.3994
▁1,8	-11.3997
84	-11.3998
pol	-11.4001
▁kíp	-11.4003
cm	-11.4009
▁Vỹ	-11.4013
▁76	-11.4015
TA	-11.402
hen	-11.4021
▁nấy	-11.403
ela	-11.4031
▁Zhang	-11.4041
Tất	-11.4045
Thái	-11.4056
▁Tóc	-11.406
▁thửa	-11.4067
▁Bay	-11.4067
▁lụy	-11.4071
▁Nằm	-11.4074
KT	-11.4079
▁International	-11.4081
▁bú	-11.4083
▁Zo	-11.4085
Thanh	-11.4085
▁Cây	-11.4091
▁Xpander	-11.4091
tic	-11.4094
▁Angela	-11.4095
▁ngán	-11.4097
Do	-11.4105
sự	-11.4112
▁tui	-11.4112
hành	-11.4112
win	-11.4119
las	-11.4122
▁Ex	-11.4124
▁Enrique	-11.4131
▁nuốt	-11.4131
.9	-11.4133
▁NS	-11.414
▁quyê	-11.414
▁Ken	-11.4143
▁Hàm	-11.4145
▁chiêm	-11.415
▁Graechen	-11.4152
▁Ros	-11.4155
ther	-11.4155
ist	-11.4159
▁ngòi	-11.4162
▁sex	-11.4166
▁nghiê	-11.4168
▁Stamford	-11.4182
▁Sáu	-11.4182
ướng	-11.4184
▁95	-11.419
▁náo	-11.4193
av	-11.4197
yl	-11.4199
▁mùng	-11.42
▁đọ	-11.4203
▁viếng	-11.4204
ại	-11.4216
▁vớt	-11.4218
▁1970	-11.4221
▁út	-11.4224
tar	-11.4226
▁Yong	-11.4234
▁Sony	-11.4241
▁nho	-11.4242
▁Ste	-11.4242
▁Hoạt	-11.4245
▁LS	-11.425
Đà	-11.4253
▁Rover	-11.4255
▁Đấu	-11.4255
▁xen	-11.4264
ds	-11.4268
ste	-11.4271
▁Đáp	-11.4272
Việt	-11.4278
▁1,4	-11.4282
▁Phân	-11.4284
▁gặt	-11.4285
phường	-11.4288
ash	-11.4291
▁mo	-11.4292
▁bùn	-11.4293
▁scandal	-11.4294
▁hoạn	-11.4296
sia	-11.4297
ico	-11.4298
adi	-11.4304
▁đu	-11.4308
din	-11.4318
▁Kẻ	-11.4319
▁ATM	-11.432
▁chánh	-11.4322
...”	-11.4323
▁0-2	-11.4329
▁Marvel	-11.4335
▁tre	-11.4336
▁sét	-11.4336
▁83	-11.4348
oli	-11.4348
▁kẹo	-11.4356
▁chuông	-11.4357
▁Chú	-11.436
▁...	-11.4364
ros	-11.4365
▁3,5	-11.437
ừ	-11.4373
▁mau	-11.4382
▁thòi	-11.4386
.7	-11.4394
▁Sports	-11.4395
▁xướng	-11.4398
▁điêu	-11.4402
▁na	-11.4406
▁chững	-11.4406
▁Michigan	-11.4407
dra	-11.4408
▁Đống	-11.4409
ora	-11.4416
600	-11.4424
▁CQĐT	-11.4428
đá	-11.4429
▁Abu	-11.443
▁sầu	-11.443
▁hông	-11.443
kho	-11.4431
Ngày	-11.4433
▁dâ	-11.4452
▁metro	-11.4459
▁(23	-11.4461
'.	-11.4465
▁hit	-11.4466
▁William	-11.4471
▁sòng	-11.4475
▁run	-11.4479
▁Nhuận	-11.448
74	-11.4482
▁bã	-11.4484
▁1988	-11.4485
▁GĐ	-11.4487
▁chốn	-11.4487
▁82	-11.4487
▁Mê	-11.4487
-22	-11.4489
▁Âm	-11.449
▁Steve	-11.449
▁Ngành	-11.4493
▁khỉ	-11.4495
Gia	-11.4497
gar	-11.4498
▁Huấn	-11.4501
▁KIA	-11.4504
▁Ren	-11.4508
-200	-11.4509
bar	-11.4509
▁ư	-11.4514
▁bâ	-11.4516
ott	-11.4518
▁Đằng	-11.4523
▁me	-11.4524
▁kìm	-11.4526
▁73	-11.4529
▁0%	-11.4531
▁Trực	-11.4533
▁Phủ	-11.4533
▁kiêng	-11.4534
▁khánh	-11.4534
▁quyển	-11.4541
Nhà	-11.4545
▁uốn	-11.455
▁phở	-11.4556
iệu	-11.4557
▁ướp	-11.4564
đi	-11.4564
▁khoanh	-11.457
▁(28	-11.4571
▁xài	-11.4579
ant	-11.4581
▁toả	-11.4581
▁chén	-11.4585
del	-11.4585
▁Andrew	-11.4596
▁nòng	-11.4598
ica	-11.4598
▁Auto	-11.46
Ảnh	-11.4603
TN	-11.4608
▁RON	-11.4609
▁vác	-11.4614
▁chuồng	-11.4618
Tây	-11.4619
▁Gates	-11.4638
▁Iceland	-11.4648
▁PVN	-11.465
▁Shinzo	-11.4659
Giá	-11.4662
▁thâu	-11.4679
▁2030	-11.4682
▁mộc	-11.4685
bin	-11.4687
▁Crystal	-11.4691
▁Lệnh	-11.4692
▁bừng	-11.4694
chiến	-11.4698
tsu	-11.4699
▁Sol	-11.4699
▁chui	-11.47
-400	-11.4701
▁nức	-11.4705
thuộc	-11.4708
▁Dạ	-11.4712
▁Đọc	-11.4714
illa	-11.4715
▁Vingroup	-11.4723
▁Quách	-11.4732
ive	-11.4733
Tình	-11.4733
▁Carolina	-11.4734
▁tươ	-11.4741
orn	-11.4743
▁dẻo	-11.4744
▁w	-11.4745
top	-11.4747
▁châ	-11.4751
▁quát	-11.4755
▁lam	-11.4755
▁UAV	-11.4758
83	-11.4762
giải	-11.4773
▁Rashford	-11.4776
▁mười	-11.4777
Sự	-11.4788
lli	-11.479
▁(22	-11.479
▁Kate	-11.4793
bà	-11.4797
▁lụa	-11.4798
▁trặc	-11.4799
▁Tốt	-11.4799
▁1991	-11.48
ling	-11.4803
▁thỏ	-11.4803
▁Trạm	-11.4809
▁gu	-11.4812
▁Bloomberg	-11.4819
▁2%	-11.4829
▁Chấn	-11.4831
ưởng	-11.4843
▁Arena	-11.4852
▁South	-11.4853
▁Roberto	-11.4857
CT	-11.4867
▁Tho	-11.487
▁Bái	-11.487
▁Torres	-11.4874
ood	-11.4881
ien	-11.4881
aki	-11.4881
ag	-11.4884
▁LHP	-11.4884
rat	-11.4888
sson	-11.4889
▁mí	-11.4893
▁Ngũ	-11.4896
▁rong	-11.4897
row	-11.4899
hay	-11.4901
▁(17	-11.4911
▁cộ	-11.4913
▁chọi	-11.4917
LA	-11.4922
▁cấn	-11.4923
▁xuôi	-11.4928
▁gầy	-11.493
▁Blues	-11.4932
72	-11.4934
▁(25	-11.4937
▁LHQ	-11.4939
▁nguội	-11.4939
▁khoái	-11.494
▁Alexander	-11.495
▁Dubai	-11.495
▁ròng	-11.4951
▁nhủ	-11.4953
hàng	-11.4957
▁diễu	-11.4961
ứa	-11.4963
▁Fed	-11.4969
▁(27	-11.4975
▁Johnny	-11.4983
ưới	-11.4984
▁lộc	-11.4985
tre	-11.4988
▁Núi	-11.4994
▁xí	-11.4995
▁luộc	-11.4995
▁Chen	-11.4996
▁mãnh	-11.4998
▁Khoản	-11.4999
aya	-11.5002
▁Thân	-11.5006
▁Tướng	-11.501
▁thản	-11.5013
▁Rẫy	-11.5016
lor	-11.5017
▁phác	-11.5017
▁hóc	-11.5018
▁Bre	-11.5019
▁Đợ	-11.502
▁Wei	-11.5025
▁nghẹn	-11.5038
▁Jun	-11.5043
▁trá	-11.5048
thành	-11.5058
▁sen	-11.5059
▁Lewandowski	-11.506
▁Spa	-11.5062
▁Bán	-11.5063
▁ABS	-11.5064
ks	-11.5066
ean	-11.5073
▁89	-11.5073
▁ngàng	-11.5075
▁ạt	-11.5078
-30	-11.5081
▁Trưng	-11.5082
▁Đỏ	-11.5086
▁(24	-11.5088
sẽ	-11.509
▁Ái	-11.5091
▁Next	-11.5104
▁Hamilton	-11.5115
▁87	-11.5119
▁dào	-11.5127
▁FLC	-11.5128
if	-11.5131
▁AP	-11.5132
Nam	-11.5135
▁ốp	-11.5138
▁Nhiệm	-11.5142
rie	-11.5143
dd	-11.5148
▁mụn	-11.5149
▁Jin	-11.5153
▁Phụng	-11.5154
▁Hào	-11.5159
▁(26	-11.5159
▁Tranh	-11.5167
-50	-11.5169
▁Thú	-11.517
SI	-11.5178
▁Trải	-11.5181
▁Fabregas	-11.5182
▁Swansea	-11.5182
▁hăng	-11.5184
cal	-11.5191
▁thưa	-11.5192
▁Xứ	-11.5193
▁phím	-11.5196
GB	-11.5197
Dù	-11.5198
▁Chúa	-11.5199
▁lú	-11.52
▁be	-11.5207
▁1-3	-11.5214
▁knock	-11.5216
▁Disney	-11.5216
▁Sta	-11.5216
ost	-11.5218
▁2.000	-11.5225
▁Jan	-11.5228
▁ồ	-11.5229
▁Type	-11.5238
▁Hari	-11.524
▁thoả	-11.524
dge	-11.5243
94	-11.5246
▁Tạo	-11.5248
▁PCCC	-11.525
▁nhức	-11.5263
▁CB	-11.5267
val	-11.5268
BC	-11.5269
GT	-11.527
▁sếp	-11.5272
lis	-11.528
▁Williams	-11.5282
▁bìa	-11.5285
▁chà	-11.5285
▁Gal	-11.5288
ND	-11.5288
ford	-11.5292
▁sành	-11.5294
olo	-11.5302
▁nhọc	-11.5303
▁Griezmann	-11.5306
▁bới	-11.5309
oss	-11.5314
▁Brom	-11.5315
▁Men	-11.5317
lk	-11.5318
can	-11.5318
▁triê	-11.5322
▁quỳ	-11.533
▁trổ	-11.5331
▁Juan	-11.5341
▁sờ	-11.5342
▁Bãi	-11.5343
▁tấp	-11.5343
▁nạt	-11.5344
tter	-11.5344
▁Tai	-11.5346
100	-11.535
▁Christian	-11.5351
▁Erdogan	-11.5351
▁Moskva	-11.5351
▁êkíp	-11.5352
▁Ivanka	-11.5352
▁gàng	-11.5352
▁Pre	-11.5353
▁lũng	-11.5353
▁gân	-11.5354
▁Nguy	-11.5361
như	-11.5361
elo	-11.5362
▁hùm	-11.5363
▁Hye	-11.5365
▁sâm	-11.5366
▁Fo	-11.5366
▁Bro	-11.5367
nóng	-11.5373
▁nhiễu	-11.5374
▁mâ	-11.5376
▁rạn	-11.5382
▁Thánh	-11.5387
▁hít	-11.5387
II	-11.5389
▁115	-11.5389
Lúc	-11.5399
▁Binh	-11.5403
CH	-11.5406
▁Matt	-11.5408
▁&#253;	-11.5409
▁Dow	-11.5412
nguyên	-11.5418
▁Il	-11.5418
▁Fan	-11.5419
▁170	-11.5419
bon	-11.5424
▁Căng	-11.5426
gần	-11.5429
▁(15	-11.543
97	-11.543
▁xắn	-11.5433
▁chă	-11.5433
▁mỳ	-11.5435
71	-11.5439
▁huỷ	-11.5443
▁Dàn	-11.5445
qui	-11.5456
▁1989	-11.5459
▁sưng	-11.5468
▁Bô	-11.547
▁bọt	-11.5473
▁Exciter	-11.5477
▁1%	-11.5481
▁đục	-11.5481
▁thạc	-11.5484
▁ế	-11.5488
▁Scott	-11.5489
NA	-11.5492
▁khâ	-11.5493
▁Biểu	-11.5494
-18	-11.55
▁Col	-11.5505
▁(11	-11.5507
▁thuỷ	-11.5508
▁Ngư	-11.5512
▁Pacquiao	-11.5512
▁chệch	-11.5512
ene	-11.5516
▁xoáy	-11.5516
▁thà	-11.5519
▁ngắt	-11.5526
▁Tour	-11.5526
don	-11.5533
▁nang	-11.554
93	-11.5541
Đức	-11.5548
▁10.000	-11.5548
▁Kat	-11.555
ati	-11.555
ito	-11.5552
▁ngây	-11.5561
ặt	-11.5563
▁ná	-11.5569
▁Stephen	-11.557
▁sỏi	-11.557
▁rốt	-11.5572
nhà	-11.5574
▁óc	-11.5576
▁Kremlin	-11.5582
▁nghẹt	-11.5582
▁Trò	-11.5585
▁Hungary	-11.5593
giá	-11.5594
▁Vina	-11.5599
81	-11.56
MP	-11.56
Chính	-11.5605
▁Phù	-11.5616
tỉnh	-11.5616
ảo	-11.5621
▁HP	-11.5625
▁Dar	-11.5625
▁Don	-11.5635
▁JMG	-11.564
▁Hoặc	-11.5641
hằm	-11.5642
▁lốc	-11.5652
ato	-11.5654
MC	-11.5673
▁Martial	-11.5675
▁cò	-11.5678
▁Peru	-11.568
▁Pen	-11.5683
▁Delhi	-11.5688
ạt	-11.5694
▁91	-11.5698
▁Play	-11.5706
▁khoét	-11.5712
▁tru	-11.5716
▁bong	-11.5718
▁2/3	-11.5718
▁Ajax	-11.5723
▁nhịn	-11.5729
iễn	-11.5732
▁Mari	-11.5736
▁Lò	-11.5744
▁Big	-11.5745
▁logo	-11.5746
▁vùi	-11.5746
▁Niềm	-11.5747
▁nhái	-11.5749
▁gas	-11.5752
ore	-11.5755
đội	-11.5757
▁Bảy	-11.5758
ED	-11.5761
▁đố	-11.5766
chủ	-11.5767
Hàn	-11.5769
▁Club	-11.577
▁Ligue	-11.5771
▁Open	-11.5771
▁sexy	-11.5781
▁hốt	-11.5782
▁Lã	-11.5785
▁rơ	-11.5786
▁Mad	-11.5791
▁MobiFone	-11.5794
VT	-11.5798
▁1/4	-11.5799
HS	-11.58
▁Lang	-11.5802
▁qui	-11.5802
▁Ebola	-11.5806
▁AVG	-11.5817
▁vãn	-11.5822
ban	-11.5823
ding	-11.5826
▁Fauci	-11.5829
▁Mang	-11.5841
▁Balotelli	-11.5841
bank	-11.5842
▁vư	-11.5845
▁toát	-11.5857
▁Bin	-11.586
▁ngả	-11.5864
▁phì	-11.5864
▁test	-11.5874
rom	-11.5874
sky	-11.5877
hiện	-11.5878
▁Mạng	-11.5879
▁Lyon	-11.5881
▁Hill	-11.5883
vô	-11.5884
▁dưng	-11.5888
▁Phóng	-11.5892
▁1986	-11.5894
car	-11.5895
jo	-11.5898
ook	-11.5907
▁Vốn	-11.5913
▁bạt	-11.5917
▁(16	-11.5918
burg	-11.5919
af	-11.5922
▁Nokia	-11.5925
▁Luc	-11.5926
▁nóc	-11.593
▁TG	-11.5935
▁trút	-11.5939
Cuộc	-11.594
▁Giáp	-11.594
des	-11.5954
▁450	-11.5956
▁(29	-11.5958
▁hâ	-11.5958
▁Đám	-11.5958
▁chì	-11.5959
▁TMCP	-11.5962
/2011	-11.5962
▁Alexis	-11.5963
hù	-11.5971
▁suôn	-11.5971
▁Falcao	-11.5974
▁Ser	-11.5989
EU	-11.599
▁then	-11.5992
▁trâu	-11.5993
tur	-11.5995
▁vờ	-11.5997
ala	-11.5998
▁Khối	-11.6
EA	-11.6003
bra	-11.6004
▁chèo	-11.6007
▁IC	-11.6013
▁thề	-11.6015
▁SC	-11.6018
▁Nay	-11.6018
▁Uông	-11.6019
▁Đen	-11.6023
day	-11.6033
▁Smith	-11.6034
▁Rome	-11.6038
CA	-11.6039
▁Shin	-11.604
hot	-11.6044
▁0,5	-11.6046
▁Trưa	-11.6047
tên	-11.6049
enko	-11.6049
▁hệt	-11.6059
▁Nu	-11.6065
itch	-11.6065
▁Viet	-11.6069
▁Lá	-11.607
800	-11.607
▁McCain	-11.6071
▁Palestine	-11.6071
▁Wayne	-11.6071
▁Yemen	-11.6071
▁Dùng	-11.6073
▁Yang	-11.6074
iếng	-11.6082
▁miêu	-11.6085
▁Henry	-11.6096
AN	-11.6096
▁nhồi	-11.6098
▁At	-11.6101
▁búp	-11.6101
▁Jr	-11.6102
tri	-11.6105
Nh	-11.6108
▁Roger	-11.6109
▁Persie	-11.612
wood	-11.6122
được	-11.6123
▁Series	-11.6123
▁râu	-11.6124
ặc	-11.613
dar	-11.6133
▁bón	-11.6137
Về	-11.6139
▁Global	-11.6145
▁Charles	-11.6145
▁Thắm	-11.6146
▁Etihad	-11.6157
▁ầm	-11.6166
▁Arizona	-11.6169
▁Xbox	-11.617
▁rước	-11.6171
▁thốt	-11.6174
kíp	-11.6184
▁chuyê	-11.6188
▁1975	-11.6191
▁Mosul	-11.6194
73	-11.6202
▁kí	-11.6203
▁Coutinho	-11.6207
▁axit	-11.6207
▁cuộn	-11.6207
▁Ven	-11.6208
sca	-11.6218
▁Plus	-11.6219
▁Soleimani	-11.6219
▁Ngà	-11.6223
▁HD	-11.6223
ls	-11.6228
▁ngơ	-11.6231
▁98	-11.6232
ane	-11.6233
Pháp	-11.6234
zer	-11.6241
▁Sho	-11.6241
RA	-11.6241
▁ngậm	-11.6244
▁gieo	-11.6245
▁lì	-11.6245
▁BĐS	-11.6247
▁Nhu	-11.6247
▁1987	-11.6248
ium	-11.625
▁thiêng	-11.6253
▁Nigeria	-11.6256
▁fanpage	-11.6256
▁Ron	-11.6262
tz	-11.6263
▁nhôm	-11.6264
▁liê	-11.6273
▁nếm	-11.6275
▁gậy	-11.6281
▁Innova	-11.6294
▁Cháu	-11.6295
▁(21	-11.63
▁cabin	-11.6303
▁rã	-11.6306
▁rùa	-11.6307
ssi	-11.6309
bor	-11.6319
▁Kính	-11.6319
▁Lazio	-11.6319
▁quỷ	-11.6321
ise	-11.6321
Huế	-11.6322
AD	-11.6331
▁nhuyễn	-11.6331
▁vẫy	-11.6332
▁vest	-11.6335
▁cấy	-11.6336
ngụ	-11.6341
▁Tae	-11.6342
▁CS	-11.6348
Để	-11.6349
▁khoát	-11.635
▁series	-11.6357
▁ră	-11.6357
▁dì	-11.6359
▁đốn	-11.6362
US	-11.6364
Ca	-11.6365
▁nghẽn	-11.6369
▁Murray	-11.6369
▁Xê	-11.637
▁Bri	-11.6372
quá	-11.6378
▁trăn	-11.6382
▁Tiết	-11.6392
BA	-11.6394
▁Brunei	-11.6394
▁Everest	-11.6394
XSM	-11.6396
lar	-11.6397
▁Andy	-11.6403
▁(14	-11.6415
Nó	-11.6416
let	-11.6422
/100	-11.6422
▁Trình	-11.6425
áp	-11.6432
▁bẹp	-11.6432
▁Jeff	-11.6432
▁Ye	-11.6436
uồng	-11.6438
nie	-11.6441
▁thốn	-11.6442
▁Libya	-11.6445
▁Mata	-11.6447
▁Mer	-11.6447
pan	-11.6449
▁khốn	-11.6454
▁bẻ	-11.6463
nis	-11.6463
▁Rai	-11.6464
▁Gabriel	-11.647
Sa	-11.6476
▁vắt	-11.6478
▁Thiago	-11.6484
▁09	-11.6484
▁Tố	-11.6488
▁nê	-11.6494
▁Hun	-11.65
▁ID	-11.6501
▁hủ	-11.6503
thu	-11.6507
ston	-11.6507
▁Lopez	-11.6509
▁Meghan	-11.6509
▁ngài	-11.6509
▁phớt	-11.6509
▁thươ	-11.652
▁Swift	-11.6521
kan	-11.6522
ếu	-11.6523
ém	-11.6533
▁Quần	-11.6535
▁Pol	-11.6547
▁Tuổi	-11.6548
▁Khảo	-11.655
▁Bolton	-11.6561
▁tăm	-11.6562
đánh	-11.657
▁Marco	-11.6572
▁Rafael	-11.6573
▁gấu	-11.6575
La	-11.6578
▁1/7	-11.6579
for	-11.6582
▁Rock	-11.6586
▁Saigon	-11.6586
▁nhị	-11.6592
▁Cruise	-11.6597
▁Porsche	-11.6599
AF	-11.6599
▁Baghdad	-11.6602
▁Stoke	-11.6612
▁Phu	-11.6612
▁Win	-11.6613
50.000	-11.662
▁Bahrain	-11.6624
▁Hawaii	-11.6624
-24	-11.6628
▁Mail	-11.6629
▁mông	-11.6631
ẫm	-11.6631
▁GP	-11.6632
▁rầm	-11.6639
tăng	-11.6643
▁RT	-11.665
▁toa	-11.6656
▁Donetsk	-11.6663
▁Modric	-11.6663
▁Tùy	-11.6663
▁Charlie	-11.6663
▁Perez	-11.6664
▁Store	-11.6664
▁Far	-11.6665
▁Cal	-11.6666
▁rỗi	-11.6667
bệnh	-11.6668
yong	-11.6671
thứ	-11.6672
port	-11.6676
▁Francisco	-11.6677
▁(12	-11.6677
sai	-11.6681
▁phồng	-11.669
mail	-11.6691
▁Pla	-11.6704
ẹo	-11.6706
▁Bruno	-11.6715
oc	-11.6724
▁vách	-11.6729
▁Khí	-11.6733
▁En	-11.6734
▁1/2	-11.6736
▁Rào	-11.6744
▁sỡ	-11.6744
▁búa	-11.6749
Ro	-11.6754
Class	-11.6755
▁Quô	-11.6758
way	-11.6759
ram	-11.6759
▁Tưởng	-11.676
erry	-11.6762
▁Mộc	-11.6768
▁FDI	-11.6768
▁Chứ	-11.6779
▁Windows	-11.6781
▁Rod	-11.6789
AG	-11.6798
▁gõ	-11.681
dor	-11.6815
▁khoắn	-11.6816
ãi	-11.6821
▁súc	-11.6822
▁xấp	-11.6822
Tại	-11.683
▁Pat	-11.6835
▁gật	-11.6837
▁Wall	-11.6837
▁să	-11.6839
wo	-11.684
▁Sterling	-11.6847
▁nhuộm	-11.6847
▁Giroud	-11.686
dri	-11.6865
▁vu	-11.6866
Đồng	-11.6867
Hai	-11.6872
▁đôn	-11.6872
▁Bỏ	-11.6875
ami	-11.6877
ves	-11.6884
▁Tìm	-11.6886
▁Dota	-11.6892
field	-11.6897
▁Buôn	-11.6898
▁thă	-11.6899
▁Ngữ	-11.6903
hai	-11.6907
▁2.0	-11.6908
▁Bull	-11.6909
▁Phản	-11.6911
eb	-11.6912
rio	-11.6913
bia	-11.692
▁Chang	-11.6921
cuộc	-11.6925
▁Will	-11.6928
▁Dựa	-11.6928
▁Zinedin	-11.694
đang	-11.6948
▁le	-11.6951
▁Chuyển	-11.6953
▁SA	-11.696
▁ưng	-11.696
▁Kiatisak	-11.6966
▁thạo	-11.6969
lf	-11.6972
▁Im	-11.6977
▁Miền	-11.6981
▁Hol	-11.6982
ord	-11.6989
ue	-11.6993
▁Phổ	-11.6996
ink	-11.7006
▁Jurgen	-11.7006
▁Power	-11.7007
▁Chuẩn	-11.7007
▁đư	-11.7009
▁750	-11.7009
ena	-11.7025
▁Ay	-11.7026
▁Serbia	-11.7029
▁SJC	-11.7033
▁chuộc	-11.7034
▁Màu	-11.7035
AR	-11.7036
▁Tony	-11.7047
▁xít	-11.7048
log	-11.7051
▁Thích	-11.7054
Chỉ	-11.7055
IT	-11.7058
▁Seo	-11.7066
▁(31	-11.7068
▁phà	-11.7076
are	-11.7081
▁Ross	-11.7081
▁Angel	-11.7086
▁Daily	-11.7087
▁Scotland	-11.7087
▁ve	-11.709
real	-11.7093
▁Đấy	-11.7094
▁đun	-11.7096
?”,	-11.7098
▁Kir	-11.7099
▁Mông	-11.71
ori	-11.7106
berg	-11.7109
▁4,5	-11.7109
ặn	-11.7109
ese	-11.7114
▁1984	-11.7119
▁re	-11.7122
▁Nỗ	-11.7123
▁Carl	-11.7125
▁Az	-11.7126
iếc	-11.7127
sau	-11.7127
▁Alpha	-11.713
▁Trác	-11.7135
eta	-11.7136
▁Hart	-11.7137
▁Zuckerberg	-11.7142
of	-11.7146
her	-11.7146
400	-11.7148
▁nhằn	-11.7149
▁Xi	-11.7164
-25	-11.7166
▁Hae	-11.7169
▁ấu	-11.7173
Trump	-11.7176
▁sọ	-11.7176
▁Vegas	-11.7183
▁Vietcombank	-11.7183
▁AR	-11.7185
▁dang	-11.7188
▁1985	-11.719
▁Free	-11.7192
kẻ	-11.7195
▁ĐKVĐ	-11.7196
▁Dẫu	-11.7197
▁quấn	-11.7198
▁gò	-11.7204
▁Sand	-11.7204
ôm	-11.7205
dia	-11.7208
Nga	-11.7224
▁Walker	-11.7224
▁Canh	-11.7225
▁Pitt	-11.7225
▁Copa	-11.7226
▁Jen	-11.7238
▁laser	-11.7238
Nữ	-11.724
IN	-11.724
pho	-11.725
gây	-11.7262
▁Thì	-11.7262
▁bưởi	-11.7265
▁đan	-11.7267
▁toan	-11.7271
▁khuấy	-11.7273
ale	-11.7274
▁ngẩn	-11.7279
▁đẫm	-11.7281
▁Sri	-11.7282
gr	-11.7284
▁cành	-11.729
via	-11.7295
▁phật	-11.7308
91	-11.7315
▁Mường	-11.7317
▁Ram	-11.7325
▁Tý	-11.7328
ville	-11.7334
▁kiêu	-11.7334
Bo	-11.7335
▁Nas	-11.7335
▁Carlos	-11.7341
▁cúi	-11.7347
ago	-11.7347
▁đă	-11.7352
▁Michelle	-11.7363
▁Paulo	-11.7364
▁miệt	-11.7365
▁Alonso	-11.7376
▁XIII	-11.7377
▁gă	-11.7379
▁tam	-11.7382
▁Đổi	-11.7384
king	-11.7386
▁bẩm	-11.739
▁Je	-11.7393
▁Vu	-11.7405
▁Nguyen	-11.7405
ello	-11.7406
ida	-11.7421
▁bu	-11.7437
▁nần	-11.7438
▁1960	-11.7447
tes	-11.7447
phone	-11.7448
▁Thập	-11.7449
eau	-11.7451
8,5	-11.7453
▁Vai	-11.747
▁Gen	-11.7471
▁lượn	-11.7471
▁SV	-11.7471
▁tro	-11.7473
▁Cánh	-11.7473
▁108	-11.7474
▁tuỳ	-11.7475
▁Rồng	-11.7477
▁7%	-11.7481
▁Pedro	-11.7488
▁Blue	-11.7493
▁đao	-11.7496
▁(13	-11.7508
ega	-11.751
▁210	-11.7515
▁Qualcomm	-11.7516
▁Brown	-11.7516
▁Houston	-11.753
▁lay	-11.7531
▁thoa	-11.7532
▁chèn	-11.7535
met	-11.7541
▁chói	-11.7544
▁Benitez	-11.7545
▁Youtube	-11.7545
▁Zi	-11.7546
▁Chơi	-11.7546
▁PH	-11.755
Đại	-11.7555
▁Tốc	-11.7557
▁Burnley	-11.7559
/2020.	-11.757
old	-11.7573
bị	-11.7578
▁chuy	-11.7581
Chi	-11.7587
▁chạp	-11.7587
▁Ung	-11.7588
▁len	-11.7594
ire	-11.7597
▁Higuain	-11.7601
▁Kuala	-11.7602
▁VAR	-11.762
iya	-11.762
▁Ghi	-11.7625
▁â	-11.7625
▁Dr	-11.7627
▁Anna	-11.7631
370	-11.7632
▁Mưa	-11.7644
cker	-11.7645
▁Phả	-11.765
▁Lumpur	-11.7659
▁NSND	-11.7659
▁Team	-11.7659
vel	-11.7661
▁Lộ	-11.7662
▁Jim	-11.7665
▁vỏn	-11.7668
▁kha	-11.7668
▁muôn	-11.7673
▁cẩu	-11.7673
▁lẩu	-11.7673
ere	-11.7676
Hôm	-11.7685
▁app	-11.7687
▁3%	-11.7687
▁Kiểu	-11.7691
150	-11.7695
▁Cre	-11.7696
▁Hoá	-11.7697
▁nude	-11.7702
eira	-11.7704
▁Đam	-11.771
VIDEO	-11.7716
▁Mueller	-11.7716
▁Nor	-11.7721
▁Vẻ	-11.7727
▁Bob	-11.7728
▁lẩn	-11.7731
▁Bờ	-11.7731
▁Au	-11.7734
▁BCH	-11.7735
▁Hứa	-11.7735
▁Tang	-11.7738
▁Trân	-11.7753
tuần	-11.7756
over	-11.7758
▁Cử	-11.7762
▁ngóng	-11.7765
SM	-11.7766
▁Chăm	-11.7775
31	-11.7781
▁Eco	-11.7786
hép	-11.7789
▁niệu	-11.7791
▁App	-11.7793
▁for	-11.7795
gra	-11.7804
cô	-11.7811
còn	-11.7815
▁GB	-11.782
ượng	-11.7824
▁Ol	-11.783
▁White	-11.7834
▁1979	-11.7837
▁Tiêm	-11.7847
▁12/2019	-11.7848
kha	-11.7849
▁BBC	-11.7851
▁Terry	-11.7852
▁đơ	-11.7855
▁Bom	-11.7859
▁Mùi	-11.7861
▁12/6	-11.7861
▁02	-11.7866
▁Simon	-11.7866
▁sảo	-11.7867
oni	-11.7868
TM	-11.7871
▁Gaming	-11.7876
▁Kích	-11.788
▁bung	-11.7886
▁cù	-11.7889
▁Mekong	-11.7891
Ô	-11.7901
cùng	-11.7902
82	-11.7903
Thời	-11.7904
▁Jessica	-11.7905
▁Wisconsin	-11.7905
▁kẹp	-11.7905
▁100.000	-11.7908
▁NHNN	-11.7911
▁bai	-11.7913
▁mỉm	-11.7915
▁Mate	-11.7918
MO	-11.7921
▁Robin	-11.7926
▁váng	-11.793
▁Martinez	-11.7935
Hải	-11.794
▁Aubameyang	-11.795
▁Ngọ	-11.7958
vn	-11.7958
▁gờm	-11.7964
▁ngạt	-11.7965
chu	-11.7971
▁Tội	-11.7974
▁Port	-11.7982
▁Jon	-11.799
▁Porto	-11.7993
▁Mat	-11.7993
▁Street	-11.7994
▁cày	-11.7994
▁nhoáng	-11.7994
▁ngớ	-11.7999
ão	-11.8001
▁Ash	-11.8003
stein	-11.8008
▁Gomez	-11.8009
▁liễu	-11.8009
▁Guam	-11.801
▁Sai	-11.801
ment	-11.8011
▁dạt	-11.8014
▁MT	-11.8017
▁!!!	-11.802
▁rót	-11.8024
-300	-11.8027
▁McLaren	-11.8038
▁Macau	-11.8038
▁ỏi	-11.8039
▁Chiểu	-11.8039
tel	-11.804
fu	-11.8042
▁4-5	-11.8043
nữ	-11.8045
▁05	-11.8052
thi	-11.8059
ọt	-11.8062
▁Mag	-11.8064
▁xê	-11.8072
▁bồng	-11.8072
▁240	-11.8073
▁GV	-11.8075
yêu	-11.8078
mal	-11.8078
▁pa	-11.8078
ray	-11.8079
▁France	-11.8083
▁Watch	-11.8083
▁CO	-11.8089
▁Ronald	-11.8093
▁650	-11.8096
▁hoán	-11.8109
fer	-11.811
▁giư	-11.812
▁Jamie	-11.8128
▁Roy	-11.8134
▁220	-11.8136
▁Cole	-11.8138
▁Jang	-11.8142
▁thìa	-11.8143
▁Buffon	-11.8143
tte	-11.8146
đối	-11.8147
▁Cổng	-11.8148
elli	-11.815
ting	-11.8152
gel	-11.8153
▁doạ	-11.8158
▁Virus	-11.8159
▁Tru	-11.8161
▁Ray	-11.8165
Fi	-11.8172
▁đàng	-11.8175
▁Gary	-11.8177
▁Vành	-11.8184
▁Wu	-11.8186
▁Sunderland	-11.8189
▁0-3	-11.8189
Mình	-11.819
▁reo	-11.8197
aga	-11.8197
▁Watford	-11.8204
bom	-11.8204
▁Ag	-11.8205
▁tuô	-11.8208
▁lóc	-11.8211
eed	-11.8212
ric	-11.8218
cher	-11.8219
▁Bal	-11.8226
LĐ	-11.8227
▁VTC	-11.8227
dự	-11.8238
Đối	-11.8238
▁Med	-11.8247
chúng	-11.8248
▁Ohio	-11.8249
▁Pharma	-11.8249
▁Vardy	-11.8249
▁Kelly	-11.8249
▁lười	-11.825
▁chằng	-11.8251
1)	-11.8254
aro	-11.8254
▁Jean	-11.8259
▁mượt	-11.8267
▁thêu	-11.8271
▁Kerry	-11.8271
Mẹ	-11.8274
▁Nick	-11.8275
▁Hot	-11.8276
▁Lawrence	-11.828
bur	-11.8281
trick	-11.8282
▁Jason	-11.8282
▁chảo	-11.8284
iệt	-11.8286
▁Musk	-11.8287
▁Bruyne	-11.8295
▁livestream	-11.8295
▁xua	-11.8297
ture	-11.8299
▁pho	-11.8301
▁5.000	-11.8306
▁níu	-11.831
▁Championship	-11.831
▁Khiêm	-11.831
ula	-11.8315
▁hươ	-11.8315
RC	-11.8318
▁Elizabeth	-11.8326
▁Đậu	-11.8326
úa	-11.8333
NS	-11.8333
▁nỉ	-11.8333
▁luâ	-11.8338
hóm	-11.834
▁mươi	-11.8341
▁Cech	-11.8341
▁Virginia	-11.8341
▁1/5	-11.8347
▁Asia	-11.8355
▁Jerusalem	-11.8356
▁lửng	-11.8356
▁Đương	-11.8361
▁737	-11.8361
▁Vườn	-11.837
HLV	-11.8371
▁chưng	-11.8371
▁Colorado	-11.8372
▁Incheon	-11.8372
▁bikini	-11.8372
▁vuốt	-11.8372
▁Xa	-11.8376
PM	-11.8377
▁Bor	-11.8385
▁Thua	-11.8386
▁Mohamed	-11.8387
jan	-11.8391
star	-11.8392
▁Vĩ	-11.8393
▁xy	-11.8406
▁nguyệt	-11.8409
tham	-11.8416
▁Daegu	-11.8418
▁Sputnik	-11.8418
hổ	-11.8418
abi	-11.8448
▁Uzbekistan	-11.8449
▁Morata	-11.8449
▁1.5	-11.845
▁chiết	-11.8457
▁Cuốn	-11.8458
iko	-11.8461
▁Gl	-11.8461
▁thối	-11.8474
nổ	-11.8477
▁Iniesta	-11.848
▁Sydney	-11.848
▁Điệp	-11.848
▁gym	-11.848
game	-11.8494
rab	-11.8495
▁Fernando	-11.8496
▁Kho	-11.8496
▁Truy	-11.8505
vis	-11.8505
▁Vật	-11.851
▁96	-11.8516
▁HN	-11.8518
ome	-11.852
▁Andre	-11.8522
▁MPV	-11.8532
hoàn	-11.8532
ộng	-11.8537
▁Gala	-11.8543
▁Leo	-11.8551
▁Lâu	-11.8552
▁Suga	-11.8556
▁Secret	-11.8558
AI	-11.857
▁nhăn	-11.8571
Và	-11.8572
▁cosplay	-11.8574
▁Cám	-11.8576
▁Carlo	-11.8576
▁ngục	-11.858
▁nầy	-11.8581
lay	-11.8582
▁XI	-11.8585
▁Hạt	-11.8587
▁Thôi	-11.859
▁xay	-11.86
EP	-11.8604
▁Mười	-11.8605
▁VĐQG	-11.8605
▁tweet	-11.8605
▁Tần	-11.8608
▁ben	-11.8608
▁lầu	-11.8613
▁chớ	-11.8617
▁Casillas	-11.8621
▁Nishino	-11.8621
▁Manuel	-11.8621
▁3.000	-11.8626
và	-11.8627
ington	-11.863
tti	-11.863
óp	-11.8632
▁tao	-11.8635
▁Tịnh	-11.8637
▁Lớn	-11.8637
▁Ak	-11.8641
▁Dani	-11.8643
▁bừa	-11.8648
▁Cruz	-11.8653
▁Phấn	-11.8653
Thực	-11.8654
▁Ivan	-11.8655
▁mỉ	-11.8665
▁Wal	-11.8667
▁lùm	-11.8668
▁Hợi	-11.8669
▁CD	-11.8672
pen	-11.8673
▁mư	-11.8673
▁Bàng	-11.8676
▁uất	-11.8687
▁Xương	-11.8689
▁4-2	-11.8689
▁tem	-11.8692
Ả	-11.8697
▁BHL	-11.87
▁quây	-11.8703
▁Bali	-11.8703
Năm	-11.8704
▁báu	-11.8708
ove	-11.8727
&#232;	-11.8732
▁Bournemouth	-11.8732
▁Vietjet	-11.8732
▁Huân	-11.8733
▁Heung	-11.8733
▁cụt	-11.8738
bất	-11.8741
▁Thịt	-11.8742
▁270	-11.8744
well	-11.8745
▁Miami	-11.8749
▁2020:	-11.8751
▁lún	-11.8752
▁Lau	-11.8755
▁bin	-11.8756
ral	-11.8759
▁mó	-11.8762
▁carbon	-11.8764
▁Lucas	-11.8765
Đoàn	-11.8765
lip	-11.8766
ưu	-11.8767
▁IV	-11.8778
▁xùm	-11.8787
▁Cực	-11.8791
▁dê	-11.8793
▁Hyun	-11.8797
▁Tám	-11.88
ken	-11.8807
▁Ole	-11.8811
▁condotel	-11.8812
▁Ashley	-11.8813
▁dằn	-11.8813
non	-11.8814
▁8/3	-11.8817
▁Mẫn	-11.8821
▁3-5	-11.8825
-14	-11.8829
▁hacker	-11.8831
BN	-11.8833
lúc	-11.8834
▁BHYT	-11.8844
▁hoạ	-11.8847
▁Luka	-11.885
TW	-11.8853
gon	-11.8853
▁Kona	-11.8854
hậm	-11.8857
trên	-11.8862
▁tụy	-11.8864
▁Gerrard	-11.8877
▁rụng	-11.8877
ark	-11.8878
▁rồ	-11.8879
▁gừng	-11.888
▁thuở	-11.889
/2010	-11.8893
▁4.0	-11.8898
lock	-11.8905
▁xư	-11.8913
▁chải	-11.892
ky	-11.8922
ens	-11.8924
▁Yingluck	-11.8926
▁Tuyền	-11.8928
Â	-11.8931
▁Miu	-11.8931
ID	-11.8938
▁Zlatan	-11.8942
▁Xavi	-11.8943
rad	-11.8946
▁GM	-11.8952
&#245;	-11.8958
▁Forbes	-11.8958
▁bục	-11.8962
!"	-11.8968
lio	-11.8968
▁HCB	-11.8969
▁Neuer	-11.8974
▁Nổi	-11.8974
▁eSports	-11.8976
▁Vang	-11.8978
zen	-11.8981
mann	-11.8984
▁5-0	-11.8986
▁yếm	-11.8988
▁Web	-11.8989
▁Asanzo	-11.8991
▁Pfizer	-11.8991
▁sỉ	-11.8995
▁Khám	-11.8995
▁hắt	-11.8997
kar	-11.9004
app	-11.9014
▁cội	-11.9021
▁Minneapolis	-11.9024
▁Nobel	-11.9024
ence	-11.9024
▁Xiaomi	-11.9024
▁Ký	-11.9027
▁sả	-11.9029
▁muô	-11.9031
▁Chicago	-11.904
▁bướm	-11.9041
▁gene	-11.9045
▁Santos	-11.9057
HAGL	-11.9059
▁xuồng	-11.906
ings	-11.9062
khu	-11.9064
▁GI	-11.9064
▁US	-11.9065
▁200.000	-11.9069
▁Char	-11.9081
▁Lux	-11.9093
▁Xác	-11.9095
▁Wood	-11.9096
hạng	-11.9097
▁Liu	-11.9099
gồm	-11.9109
Thủ	-11.9109
cao	-11.9113
▁rán	-11.9114
Là	-11.9114
Làm	-11.9119
Qaeda	-11.9123
▁òa	-11.9123
nCoV	-11.9128
▁116	-11.913
▁Tor	-11.9135
mobi	-11.9137
▁Nicolas	-11.9139
ef	-11.9141
▁Gương	-11.9148
▁Stra	-11.915
bắt	-11.9151
▁Bezos	-11.9156
▁Brighton	-11.9156
▁Welbeck	-11.9156
▁truất	-11.9157
GD	-11.9157
▁Mur	-11.9158
▁Côn	-11.9159
▁NLĐ	-11.9159
vì	-11.9165
Siêu	-11.9176
▁Eden	-11.9182
iti	-11.9185
▁xo	-11.9187
▁Tà	-11.9187
▁shop	-11.9189
▁kiếp	-11.919
mes	-11.9191
để	-11.9195
▁Mr	-11.9197
▁%	-11.92
▁tỉa	-11.92
▁Heerenveen	-11.9206
▁Simeone	-11.9206
tiền	-11.9212
chiếc	-11.9212
ada	-11.9213
▁HCĐ	-11.9213
mà	-11.9219
khó	-11.9221
▁MTTQ	-11.9223
▁Tel	-11.9226
▁Xử	-11.9227
▁rapper	-11.9232
gram	-11.9233
▁Ngồi	-11.924
▁ứ	-11.9244
Chủ	-11.9244
đóng	-11.9251
▁go	-11.9253
▁Ger	-11.9257
▁Thỏa	-11.9259
▁lều	-11.9262
fan	-11.9265
▁Accent	-11.9273
▁Kardashian	-11.9273
▁cẩm	-11.9273
▁Morgan	-11.9274
low	-11.9275
▁Mont	-11.9276
dong	-11.9282
▁Choi	-11.9283
▁đậy	-11.929
▁khăng	-11.9294
lie	-11.9297
▁Mary	-11.9301
▁Sanders	-11.9304
▁Thức	-11.9309
▁Nền	-11.932
▁Liveshow	-11.9324
▁Robben	-11.9324
▁Cheng	-11.9327
Hoàng	-11.9329
Cha	-11.9331
▁Davis	-11.9341
ille	-11.9342
▁95%	-11.9349
BV	-11.9361
▁chước	-11.9361
▁12%	-11.9367
ứt	-11.9368
▁Day	-11.9368
▁Noo	-11.9371
▁Mbappe	-11.9375
▁stylist	-11.9375
▁nhốt	-11.9379
▁rạch	-11.9379
▁ACV	-11.9382
▁30/6	-11.9386
?!	-11.9392
ado	-11.9398
▁suông	-11.9399
▁DJ	-11.9405
▁Dream	-11.9409
▁Dẫn	-11.9413
▁rock	-11.9416
ple	-11.9417
▁Kra	-11.9425
▁Muller	-11.9426
▁Luiz	-11.9427
▁phom	-11.9427
▁MP	-11.943
▁1974	-11.9431
iếp	-11.9438
▁Call	-11.9438
▁500.000	-11.9438
▁Jakarta	-11.9443
▁Adrian	-11.9443
trú	-11.9444
▁Thưởng	-11.9444
▁Dior	-11.9446
▁miện	-11.9446
▁VIP	-11.9451
ade	-11.9456
▁Vấp	-11.9457
▁file	-11.946
▁keo	-11.9462
▁Rob	-11.9463
▁vế	-11.9463
vil	-11.9467
▁hat	-11.9469
▁Sara	-11.9472
với	-11.9485
cơ	-11.9487
▁Kei	-11.9489
▁Đoan	-11.9495
DC	-11.9506
▁chợt	-11.9506
▁Lái	-11.9511
▁1/6	-11.9511
▁Rodrigo	-11.9512
▁gáy	-11.9512
▁Emery	-11.9512
▁Intel	-11.9513
▁trướng	-11.9513
▁nơ	-11.9513
▁Bão	-11.9516
▁Erik	-11.9519
▁Nhắ	-11.9519
▁105	-11.9519
Capita	-11.9528
▁Boris	-11.9532
▁Hết	-11.9532
gã	-11.9532
▁Bưu	-11.9533
giảm	-11.9535
▁tưới	-11.9537
▁Cavani	-11.9547
▁Marseille	-11.9547
▁CTCP	-11.9547
▁hack	-11.9548
▁Stone	-11.9551
▁tẻ	-11.9552
▁1983	-11.9552
▁quô	-11.9552
Cả	-11.9559
▁há	-11.9562
▁Valentine	-11.9566
▁31/12	-11.9572
DN	-11.9573
▁6/3	-11.9576
▁Đau	-11.9579
KQXS	-11.9581
/2021	-11.9581
iki	-11.9583
Hz	-11.9587
▁Wil	-11.9594
fri	-11.9596
▁Ranh	-11.9606
▁Lân	-11.9609
Ban	-11.9612
▁Lữ	-11.9613
▁rẫy	-11.9616
▁Omar	-11.9619
Nghệ	-11.9621
▁kWh	-11.9623
▁6%	-11.9627
AP	-11.9632
▁Fashion	-11.9633
▁ghì	-11.9634
▁Serena	-11.9634
TH	-11.9637
▁Lạnh	-11.9637
▁ADN	-11.9637
ika	-11.9647
▁Minnesota	-11.9651
FF	-11.9652
▁Tal	-11.9653
▁230	-11.9657
▁24/7	-11.9663
▁03	-11.9663
▁7,5	-11.9663
▁vn	-11.9665
▁Pellegrini	-11.9668
▁rễ	-11.9672
▁North	-11.9673
▁HI	-11.9678
▁Nghĩ	-11.9682
▁Bon	-11.9682
▁Kịch	-11.9686
▁Chọn	-11.9686
▁rụi	-11.9686
▁muỗi	-11.9686
▁Carter	-11.9688
▁Phiến	-11.9691
▁Lũ	-11.9694
▁Cầm	-11.9697
▁bus	-11.9703
▁ruồi	-11.9704
thả	-11.9705
▁Hunter	-11.9708
▁cỏi	-11.971
ary	-11.9713
▁Leonardo	-11.9721
▁cafe	-11.9721
▁Depp	-11.9723
sion	-11.9726
của	-11.9727
▁2,3	-11.973
ique	-11.9731
▁Sim	-11.9735
▁cholesterol	-11.9739
▁giằng	-11.974
▁Palm	-11.9741
▁xước	-11.9741
▁hấn	-11.9742
▁von	-11.9743
▁RS	-11.9743
chị	-11.9745
▁6/4	-11.9747
sak	-11.9752
▁&#212;	-11.9756
yr	-11.9762
▁20.000	-11.9766
▁massage	-11.9774
▁át	-11.9776
▁1950	-11.9778
▁Harvard	-11.9792
▁3/11	-11.9798
ics	-11.9799
▁Hường	-11.9804
▁úp	-11.981
time	-11.9813
Như	-11.9814
▁Face	-11.9815
▁Lô	-11.9815
eu	-11.9815
▁thục	-11.9818
huyền	-11.9818
▁phông	-11.9821
▁Andrea	-11.9823
LS	-11.9825
▁Bửu	-11.9828
▁Bluezone	-11.9828
VAMA	-11.9828
▁Tràm	-11.9829
▁Giảm	-11.983
red	-11.984
▁Trợ	-11.9847
▁Gil	-11.9856
▁Patrick	-11.9865
-11	-11.987
cio	-11.987
▁Né	-11.9873
Hoa	-11.9873
▁Phil	-11.9875
▁Sống	-11.9877
.300	-11.988
▁Leverkusen	-11.9881
▁OceanBank	-11.9881
▁ngùi	-11.9881
▁Danny	-11.9881
▁93	-11.9883
ưỡng	-11.9884
▁ngh	-11.9884
▁Timor	-11.9886
stic	-11.9887
▁loét	-11.9888
lle	-11.9892
▁Tuyệt	-11.9898
&#193;	-11.9899
▁thính	-11.9903
-17	-11.9904
▁live	-11.9912
▁Toản	-11.9917
thay	-11.9919
▁Thuỷ	-11.9923
▁Beta	-11.9931
▁vung	-11.9932
▁Petr	-11.9933
▁Gun	-11.9934
▁canxi	-11.9939
▁Chà	-11.9951
▁2,2	-11.9952
▁Marcelo	-11.9953
▁ICBM	-11.9958
▁Rica	-11.9968
▁yoga	-11.9971
ếch	-11.9974
▁thừng	-11.9977
chiếm	-11.998
▁1/10	-11.9982
▁(0	-11.9995
▁Dao	-11.9996
uẩn	-12.0002
▁Lewis	-12.0007
▁Pochettino	-12.0007
▁Sar	-12.0011
▁You	-12.0013
▁nhơ	-12.0016
▁5,5	-12.0021
lạ	-12.0022
▁Phe	-12.0022
▁sừng	-12.0029
▁Brian	-12.004
ía	-12.004
▁dí	-12.0043
▁Joseph	-12.0046
▁trồ	-12.0046
▁Vượt	-12.0047
▁gang	-12.0049
▁Good	-12.0049
▁Shaw	-12.005
▁hoay	-12.005
▁AN	-12.0057
▁5-1	-12.006
▁Wan	-12.0061
▁Luyện	-12.0062
cái	-12.0062
▁Hòn	-12.0064
▁8%	-12.0064
▁Kai	-12.0083
▁1976	-12.0086
▁Hee	-12.0087
hoặc	-12.0099
▁choàng	-12.0099
▁94	-12.0102
▁1981	-12.0103
▁Pháo	-12.0106
FDA	-12.0106
▁ngụy	-12.0109
▁xíu	-12.011
oon	-12.011
▁ếch	-12.0113
▁Maduro	-12.0117
▁SantaFe	-12.0117
▁Miller	-12.0117
▁Duẩn	-12.0119
▁riết	-12.0119
▁CK	-12.0126
gal	-12.0127
▁Art	-12.0133
▁Dragon	-12.0135
▁rượt	-12.0136
▁Hawk	-12.0136
▁Marcus	-12.0137
ath	-12.0138
▁hú	-12.0142
Mar	-12.0148
300	-12.0153
▁Fellaini	-12.0153
▁Queen	-12.0153
▁Nhớ	-12.0163
sin	-12.0168
▁Rodgers	-12.0172
▁giếng	-12.0173
▁Chống	-12.0173
tình	-12.0182
▁Hộ	-12.0186
▁Alves	-12.0191
sley	-12.0194
▁Petro	-12.0195
▁Luôn	-12.02
▁CIA	-12.0203
▁mìn	-12.0205
▁Chanel	-12.0207
▁quẩn	-12.0209
▁nghê	-12.0211
▁Gold	-12.0217
▁Cook	-12.0218
▁155	-12.022
▁Hảo	-12.0233
▁Suối	-12.0234
▁TPP	-12.0234
sch	-12.0236
!!	-12.0253
▁Mất	-12.0254
▁tắn	-12.0261
▁Snowden	-12.0264
▁Sociedad	-12.0264
ượt	-12.0265
▁Sung	-12.0278
▁cào	-12.0288
ược	-12.0292
▁you	-12.0292
sống	-12.0295
▁Sanna	-12.0301
▁Bilbao	-12.0302
▁Sergei	-12.0302
▁pop	-12.0303
▁Trụ	-12.0303
▁chướng	-12.0304
▁Khoảnh	-12.0311
▁lầy	-12.0312
▁Blade	-12.0313
Ho	-12.0316
▁Roosevelt	-12.032
▁Schweinsteiger	-12.032
▁hattrick	-12.032
ghề	-12.0323
▁hấu	-12.0324
ashi	-12.0332
RI	-12.0333
2,5	-12.0335
light	-12.0337
▁thuâ	-12.0337
▁Kroos	-12.0339
▁WAGs	-12.0339
LC	-12.034
▁tuông	-12.0343
▁Dần	-12.0348
▁nga	-12.0348
▁Hỗ	-12.035
cách	-12.035
quy	-12.0353
▁Jung	-12.0353
▁Diệ	-12.0354
▁bèo	-12.0357
▁Bolt	-12.0357
▁Vinasun	-12.0358
aj	-12.0369
ám	-12.0371
▁Jesus	-12.0377
▁Mesut	-12.0377
▁Wolverhampton	-12.0377
▁4%	-12.0377
DS	-12.0379
▁sấu	-12.038
▁Mane	-12.0393
▁75%	-12.0393
▁nhung	-12.0395
▁Corolla	-12.0395
▁Macron	-12.0396
HA	-12.0396
▁trèo	-12.0397
▁1978	-12.0402
▁(32	-12.0405
Triều	-12.0406
road	-12.0411
▁Cúc	-12.0412
▁ByteDance	-12.0414
▁Pasteur	-12.0414
▁APEC	-12.0415
lanh	-12.0422
Cậu	-12.0424
▁trâ	-12.0424
điều	-12.0426
▁Tông	-12.0429
▁Cerato	-12.0433
▁Đỉnh	-12.0433
-2020	-12.0434
▁Nhạ	-12.0442
▁Hodgson	-12.0452
▁ODA	-12.0454
▁Samson	-12.0454
▁mải	-12.0461
▁Damascus	-12.0471
THACO	-12.0471
▁ngốc	-12.0473
▁Thuột	-12.0475
▁Noel	-12.0475
▁Dinh	-12.0483
▁Làng	-12.0484
▁Bla	-12.0484
▁0,1	-12.0486
▁Brussels	-12.049
▁Dmitr	-12.049
ẵn	-12.049
▁XII	-12.0492
▁35%	-12.05
▁(35	-12.0502
▁Royal	-12.0509
▁chùm	-12.0509
▁biếu	-12.051
▁River	-12.0511
▁thắm	-12.0513
Ngay	-12.0513
▁buô	-12.0517
more	-12.0526
▁Slam	-12.0528
▁xóc	-12.0531
una	-12.0531
xa	-12.0532
▁Dữ	-12.0532
PV	-12.0536
book	-12.0543
▁Oxford	-12.0547
▁Tucson	-12.0547
▁quyện	-12.0547
tech	-12.0548
▁:))	-12.0548
▁MiG	-12.0548
▁Lady	-12.0553
ping	-12.0556
▁Gà	-12.0556
▁Sarah	-12.0556
▁stress	-12.0567
▁Thới	-12.0568
▁Đặt	-12.0568
▁calo	-12.0569
▁TC	-12.0576
▁???	-12.0577
▁1.0	-12.0581
▁Lạ	-12.0582
▁Awards	-12.0586
▁Edition	-12.0586
▁Chả	-12.0592
▁Range	-12.0599
rùng	-12.0601
▁Bolsonaro	-12.0605
bang	-12.0605
▁Vigo	-12.0608
-52	-12.062
▁97	-12.0632
▁30/4	-12.0635
ER	-12.0637
▁Fire	-12.064
▁mủ	-12.0641
▁Christopher	-12.0644
▁vòm	-12.0644
▁Raj	-12.0646
▁Sắc	-12.0648
▁MW	-12.065
▁Emma	-12.0656
đồng	-12.0656
▁Rose	-12.0659
▁tậu	-12.0663
▁Winner	-12.0663
sport	-12.0664
▁nêm	-12.0679
uck	-12.0686
▁CV	-12.0686
bas	-12.0692
▁chổ	-12.0692
▁QU	-12.0694
enne	-12.0696
thời	-12.0698
bản	-12.0699
▁Subaru	-12.0702
▁casting	-12.0702
▁Ok	-12.0705
-2019	-12.0707
▁xỉu	-12.0708
zar	-12.071
▁Alli	-12.0717
yeong	-12.0719
▁Italia	-12.0721
▁Đăk	-12.0721
▁2,4	-12.0721
▁mui	-12.0722
use	-12.0725
9,5	-12.0726
▁mồm	-12.0729
▁Turin	-12.073
▁kền	-12.073
▁Cốc	-12.0738
▁Phá	-12.0739
▁Ultra	-12.0741
▁Tràng	-12.0744
▁1000	-12.0744
dle	-12.0745
▁Suy	-12.0747
hói	-12.0755
▁Civic	-12.076
▁Entertainment	-12.076
▁Firmino	-12.076
▁BQL	-12.076
▁Eva	-12.0764
ép	-12.0764
ista	-12.0766
▁Thụ	-12.0766
elle	-12.0767
anda	-12.0773
▁NASA	-12.0779
▁Lavrov	-12.078
▁loãng	-12.078
▁Thục	-12.079
điểm	-12.0791
▁550	-12.0795
pha	-12.0795
▁Var	-12.0796
▁Lôi	-12.0797
▁Đạ	-12.0798
▁gồng	-12.0802
Số	-12.0804
▁Chức	-12.0814
▁Amsterdam	-12.0819
▁Celta	-12.0819
▁Comey	-12.082
.700	-12.0823
FC	-12.0824
▁bầm	-12.0824
sil	-12.0829
▁chích	-12.083
▁Albert	-12.084
HAY	-12.084
Vợ	-12.0842
▁spa	-12.0842
bs	-12.0842
won	-12.0845
▁Santa	-12.0849
▁Deschamps	-12.0858
▁Tống	-12.0861
tai	-12.0869
uộc	-12.0877
bộ	-12.0878
▁bẩy	-12.0878
▁Mus	-12.0879
▁khét	-12.0882
▁Mega	-12.089
lên	-12.0891
ẳ	-12.0896
tại	-12.0898
▁Eximbank	-12.0898
▁Walter	-12.0898
▁Đưa	-12.0902
▁1972	-12.0904
▁280	-12.0908
ins	-12.0909
▁sọc	-12.0914
▁Francis	-12.0917
▁Bê	-12.0918
▁Kit	-12.0921
WD	-12.0922
▁Diện	-12.0924
khá	-12.0925
mất	-12.0929
▁ATP	-12.0929
quả	-12.0932
▁Chờ	-12.0933
▁Dybala	-12.0938
▁miên	-12.0939
▁chấu	-12.0942
tôi	-12.095
▁Mel	-12.0952
trước	-12.0952
▁Roman	-12.0952
vợ	-12.0957
▁Garcia	-12.0958
▁Giggs	-12.0958
▁muỗng	-12.0958
▁Vãn	-12.0958
▁hớ	-12.0964
▁nhọ	-12.0968
shin	-12.0968
▁102	-12.097
VI	-12.0971
▁gâ	-12.0972
▁trói	-12.0978
▁Mật	-12.0978
▁trư	-12.098
▁nhă	-12.0982
▁xỉn	-12.0991
ỹ	-12.0996
▁Guzman	-12.0998
▁Hopkins	-12.0998
▁Orlando	-12.0998
▁Warren	-12.0998
▁Jackson	-12.1
▁6/1	-12.1011
▁Lư	-12.1016
▁Blatter	-12.1018
▁xoài	-12.1018
▁sẹo	-12.1019
▁Đê	-12.1028
▁nến	-12.1029
▁Laurent	-12.1039
▁TGĐ	-12.1039
▁Thuốc	-12.1044
▁Road	-12.1045
▁Shu	-12.1049
ĩnh	-12.105
▁50.000	-12.1052
▁CVT	-12.1053
▁năn	-12.1053
▁Airways	-12.1058
▁Courtois	-12.1058
▁Hổ	-12.106
▁view	-12.1064
Bố	-12.1066
▁Lim	-12.1068
Chị	-12.1074
▁Moderna	-12.1078
mmer	-12.1078
lyn	-12.1081
▁cưa	-12.1082
▁190	-12.1082
▁chần	-12.1083
▁chập	-12.1086
độ	-12.1093
▁Bentley	-12.1098
▁Cher	-12.1105
Đội	-12.1114
AO	-12.1117
▁càn	-12.1121
▁Michel	-12.1131
▁Ngôn	-12.1133
▁1.6	-12.1135
▁113	-12.1138
▁Gre	-12.115
lov	-12.1152
thần	-12.1157
Đến	-12.1158
▁micro	-12.1159
lần	-12.1163
▁Ea	-12.1164
▁20/1	-12.117
tính	-12.1173
0-100	-12.1174
▁Ertiga	-12.1179
▁Herrera	-12.1179
▁Kennedy	-12.1179
▁teen	-12.1179
▁Loew	-12.1181
▁Bel	-12.1183
phá	-12.1194
▁30/9	-12.1197
1,5	-12.1199
▁Vinamilk	-12.12
▁Mũi	-12.12
▁Diesel	-12.122
▁tiếu	-12.1221
▁Luke	-12.1223
▁Alba	-12.1226
▁nhuần	-12.1227
▁Kas	-12.1229
rr	-12.1234
▁1.8	-12.1236
▁lép	-12.1243
▁Tấm	-12.1244
▁0,2	-12.1246
▁vali	-12.1247
Chiến	-12.1256
Đã	-12.1262
▁Tuân	-12.1263
▁gắm	-12.1264
itt	-12.1266
-90	-12.1273
chạy	-12.1276
▁chao	-12.1278
học	-12.1282
▁Sarri	-12.1284
7,5	-12.1297
Cơ	-12.13
▁Geneva	-12.1303
▁Faker	-12.1303
sar	-12.1304
▁Pho	-12.1305
▁Biệt	-12.1308
ase	-12.131
????	-12.1312
Thụy	-12.1317
▁nập	-12.1318
PS	-12.1319
▁Nevada	-12.1323
▁Studio	-12.1323
▁bậy	-12.1323
▁lựu	-12.1323
Rất	-12.1326
trả	-12.1329
▁Ribery	-12.1344
▁ngạo	-12.1345
▁gen	-12.1345
▁Rush	-12.1347
Cách	-12.1347
▁Er	-12.1347
▁Pass	-12.1363
bó	-12.1364
▁jeans	-12.1365
▁Evans	-12.1365
▁Thoa	-12.1366
▁Isco	-12.1369
Qua	-12.137
▁rưng	-12.1385
▁like	-12.1387
▁Uống	-12.1389
▁cạo	-12.1394
▁mấu	-12.1397
▁Jia	-12.14
▁Benfica	-12.1406
▁Tencent	-12.1406
▁WB	-12.1418
▁1.7	-12.1426
erson	-12.1426
▁Karim	-12.1427
ette	-12.1429
▁Yan	-12.1435
▁Rich	-12.1443
▁8/1	-12.1444
▁Lebanon	-12.1448
▁Raqqa	-12.1448
▁Holmes	-12.1448
▁Hạng	-12.1448
▁Wigo	-12.1449
the	-12.1451
▁HTV	-12.1463
Trường	-12.1465
vor	-12.1466
▁tuyê	-12.1467
▁Borussia	-12.1469
▁2023	-12.147
ries	-12.1472
▁Gaga	-12.1479
Fast	-12.1481
▁Fre	-12.1481
chan	-12.1482
▁tủi	-12.1483
▁Hô	-12.1487
play	-12.149
Jo	-12.149
▁Tedros	-12.149
▁dc	-12.1492
▁võng	-12.1493
▁lố	-12.1494
tana	-12.1506
▁Lính	-12.1511
▁Brent	-12.1512
▁yến	-12.1512
▁320	-12.1513
thiên	-12.1514
▁Khan	-12.1519
Tam	-12.152
cà	-12.1529
▁Bugatti	-12.1532
▁hybrid	-12.1532
ọa	-12.1533
▁Final	-12.1533
▁Nathan	-12.1534
▁pro	-12.1553
▁rìa	-12.1553
▁Nghiệp	-12.1553
mart	-12.156
phát	-12.1562
Hồ	-12.1563
▁Phục	-12.1575
▁Thâm	-12.1577
IP	-12.1583
▁Mãi	-12.1584
▁04	-12.1587
▁phen	-12.1591
▁code	-12.1596
▁WTI	-12.1596
▁méo	-12.1596
▁Romania	-12.1596
▁24/24	-12.1596
▁Bát	-12.1605
▁Fred	-12.1607
3,5	-12.161
▁Tức	-12.1614
▁Frankfurt	-12.1617
▁Reagan	-12.1617
▁Thor	-12.1626
▁Shan	-12.163
cor	-12.1634
▁rôn	-12.1634
▁Agribank	-12.1638
▁team	-12.1638
▁Jersey	-12.1638
tay	-12.1639
▁sít	-12.1641
sân	-12.1642
thị	-12.1643
▁Key	-12.1644
▁UNCLOS	-12.1644
▁Đắc	-12.1646
▁Móng	-12.1648
▁Edward	-12.166
▁Giây	-12.1662
ránh	-12.1671
▁Ter	-12.1675
▁Tiệp	-12.1681
▁Wilson	-12.1682
▁101	-12.1686
▁Gam	-12.1688
▁All	-12.1689
▁kèo	-12.1696
đầu	-12.1701
▁Diamond	-12.1702
▁dặm	-12.1702
▁rỗng	-12.1702
▁hãnh	-12.1705
▁chùn	-12.1708
Chú	-12.1715
▁Đư	-12.1719
đặc	-12.1721
cơn	-12.1723
▁gốm	-12.1724
▁Seung	-12.1726
Cảm	-12.1739
ure	-12.1743
▁solo	-12.1744
▁Kushner	-12.1746
▁giễu	-12.1746
▁Altis	-12.1746
▁Phantom	-12.1746
trừ	-12.1746
▁45%	-12.1749
▁gào	-12.1756
▁Gran	-12.1757
▁Pepe	-12.1759
▁TI	-12.1759
▁hốc	-12.1761
cười	-12.1763
▁Netflix	-12.1767
▁260	-12.1768
đổ	-12.1768
▁Ball	-12.1772
▁6/2	-12.1777
▁Tạng	-12.1782
▁Mun	-12.1789
▁dơi	-12.1789
▁hán	-12.1792
MD	-12.1798
▁Leon	-12.18
▁Abramovich	-12.181
▁nành	-12.1811
▁tuột	-12.1812
ote	-12.1818
chung	-12.1823
▁Thả	-12.1824
▁EcoSport	-12.1832
▁Phạt	-12.1833
▁rập	-12.1839
EX	-12.1842
▁Kang	-12.1843
▁Cứu	-12.1848
Assad	-12.185
Thế	-12.1853
▁Ecuador	-12.1854
▁Chùa	-12.1855
bỏ	-12.1862
▁Vui	-12.1867
USD	-12.1871
Giờ	-12.1873
▁4.000	-12.1873
▁nă	-12.1874
▁Fiorentina	-12.1876
▁sủa	-12.1876
đất	-12.1878
độc	-12.1882
anna	-12.1882
pper	-12.1886
▁won	-12.1887
▁Wong	-12.1888
▁(36	-12.1892
▁Thạc	-12.1892
▁Tray	-12.1893
jong	-12.1897
▁Khẩu	-12.1898
▁luyến	-12.1898
▁giặc	-12.1899
▁Nê	-12.1899
họ	-12.1915
/2009	-12.192
▁két	-12.1921
So	-12.1922
▁BR	-12.1925
Voi	-12.1926
lum	-12.1932
▁VND	-12.1941
▁Allegri	-12.1942
▁hatchback	-12.1942
▁2,7	-12.1942
▁Maryland	-12.1942
▁McC	-12.1942
Khá	-12.1943
▁IPO	-12.1944
▁Xá	-12.1945
▁Sợ	-12.1946
▁135	-12.196
▁Boy	-12.1961
▁XSKT	-12.1964
thắng	-12.1964
▁lẻo	-12.1964
▁ngấm	-12.1966
pot	-12.1968
▁Music	-12.1969
▁hoả	-12.1969
▁Hall	-12.1973
trận	-12.1983
etta	-12.1986
▁xộn	-12.1991
▁1973	-12.1992
▁1,9	-12.1992
▁Karl	-12.1995
▁NHM	-12.1999
Bắc	-12.1999
▁Bè	-12.2005
▁CKTG	-12.2008
▁Arteta	-12.2008
▁Phillip	-12.2008
▁Katie	-12.2009
Xin	-12.2011
▁Heat	-12.2017
▁Live	-12.2017
▁vs	-12.2021
▁nem	-12.2023
hiếu	-12.2023
nhân	-12.2025
▁Miranda	-12.203
▁Vespa	-12.203
▁resort	-12.203
▁sưởi	-12.203
▁Sơ	-12.2031
chơi	-12.2033
▁Bun	-12.205
phần	-12.2052
▁(34	-12.2052
▁Najib	-12.2052
▁175	-12.2054
▁hòng	-12.2056
▁Pacific	-12.2061
▁sấy	-12.2062
▁128	-12.2063
▁Hwasong	-12.2075
▁Koeman	-12.2075
▁Dụng	-12.2075
▁Week	-12.2075
▁CĐ	-12.2076
▁sặc	-12.2076
▁Johns	-12.2079
▁1.2	-12.2088
▁Joshua	-12.2097
▁Rosberg	-12.2097
IMF	-12.2098
▁gượng	-12.2098
house	-12.2114
▁Bou	-12.2116
▁Vidal	-12.212
▁2,6	-12.212
▁trù	-12.2121
Thông	-12.2121
▁Philippe	-12.2121
▁rê	-12.2128
▁nhổ	-12.2129
▁27/7	-12.213
▁mè	-12.2131
▁Bù	-12.2139
▁Mohammed	-12.2142
▁WeChat	-12.2142
▁Wolfsburg	-12.2142
▁showroom	-12.2142
nay	-12.2142
▁nguyền	-12.2143
▁ngứa	-12.2143
▁IOC	-12.2145
▁3-3	-12.2147
TTg	-12.2154
Quá	-12.2155
▁Alan	-12.2157
chai	-12.2161
inger	-12.2163
▁1.4	-12.2164
▁que	-12.2165
▁Fold	-12.2168
oạt	-12.2172
▁Des	-12.2177
▁Villarreal	-12.2187
▁Yokohama	-12.2187
▁tẩm	-12.2187
▁Vic	-12.2187
bình	-12.2188
▁chốc	-12.2192
▁RX	-12.2195
▁Jay	-12.22
▁tuýp	-12.2201
Baghdadi	-12.2203
6,5	-12.2206
gọi	-12.2207
▁Fulham	-12.2209
▁Future	-12.2209
▁RO	-12.2211
▁2019-2020	-12.2211
▁gameplay	-12.2212
▁3/4	-12.2218
Bệnh	-12.223
Karabakh	-12.2232
▁laptop	-12.2232
-27	-12.2241
Giấ	-12.2245
▁Masters	-12.2248
▁Walcott	-12.2255
▁sàm	-12.2255
▁casino	-12.2255
▁yen	-12.2257
▁Mạn	-12.2269
▁thán	-12.2275
▁Sương	-12.2277
▁Gui	-12.2277
▁Atalanta	-12.2277
▁Selena	-12.2277
▁Theodore	-12.2277
▁covid	-12.2277
▁Jazz	-12.2278
chuyện	-12.2286
▁Pele	-12.2289
▁Bông	-12.2295
zza	-12.2298
▁chảnh	-12.2299
▁Honduras	-12.23
Quan	-12.2304
▁Dấu	-12.2309
▁1,0	-12.2311
▁Doji	-12.2313
cố	-12.2314
Phim	-12.2321
▁Esper	-12.2323
▁Ranieri	-12.2323
▁Blake	-12.2323
▁thớt	-12.2326
▁11/9	-12.2327
Ra	-12.2334
▁Giữ	-12.2342
6,7	-12.2343
▁cươ	-12.2344
▁Vaccine	-12.2346
▁Kênh	-12.2346
▁Town	-12.2346
▁Capital	-12.2347
▁(37	-12.2353
Vũng	-12.2356
▁Mak	-12.2357
▁Home	-12.2357
▁300.000	-12.2358
key	-12.2359
▁Váy	-12.2369
▁VNPT	-12.2369
virus	-12.2369
▁Diana	-12.2372
▁mẫn	-12.2377
Thu	-12.2379
ono	-12.2379
chất	-12.2386
▁Xếp	-12.2392
▁Matic	-12.2395
▁Nhậm	-12.2395
▁Assad	-12.2395
▁phất	-12.2396
back	-12.2396
▁DC	-12.2397
stra	-12.241
Germain	-12.2414
▁Project	-12.2415
▁selfie	-12.2415
▁cuốc	-12.2415
▁Smart	-12.2419
▁Tro	-12.2424
quan	-12.2428
▁HQ	-12.2435
chol	-12.2437
▁Navas	-12.2438
▁Jorge	-12.2438
▁Toure	-12.2441
▁Kur	-12.2442
▁Woo	-12.2443
itz	-12.2443
▁Whi	-12.2451
▁25/7	-12.2453
hô	-12.2456
tấn	-12.2456
-21	-12.2457
▁Maya	-12.2461
▁Buffett	-12.2461
▁Cameron	-12.2461
▁Matthew	-12.2461
▁Nepal	-12.2461
▁Universe	-12.2461
TTCK	-12.2462
▁Nhị	-12.2464
▁Ghen	-12.2466
Cầu	-12.247
ship	-12.2471
6.000	-12.2472
▁Xung	-12.2489
-500	-12.2491
▁Bryan	-12.2507
▁4,3	-12.252
“	-12.253
▁Nagorno	-12.2531
▁Aventador	-12.2531
▁Sacombank	-12.2531
▁Osaka	-12.2531
▁rợn	-12.2545
Cho	-12.255
▁Lỗi	-12.2554
ghi	-12.2564
▁Ferdinand	-12.2577
▁Istanbul	-12.2577
thủ	-12.2584
▁OPEC	-12.2591
▁BD	-12.2592
▁dẳng	-12.2601
▁nhõm	-12.2601
▁Johan	-12.2602
▁USB	-12.2604
ever	-12.2605
umi	-12.2616
▁vặn	-12.2618
▁6,5	-12.2619
add	-12.2624
▁cõi	-12.2625
▁Jonathan	-12.2625
▁Weibo	-12.2626
▁Germain	-12.2626
▁vía	-12.2641
▁Mkhitaryan	-12.2648
▁1.9	-12.2648
▁1968	-12.2658
▁Brio	-12.266
▁Gã	-12.2668
▁server	-12.2672
▁Titan	-12.2672
Phải	-12.2673
▁phôi	-12.2681
▁Tầm	-12.2688
0,5	-12.2694
▁Thao	-12.2695
Hùm	-12.2696
▁oán	-12.2699
▁Raul	-12.2701
▁phình	-12.2704
001	-12.2709
▁Lão	-12.271
▁sá	-12.2714
▁hẫng	-12.2719
▁mẩn	-12.2719
▁15/7	-12.2724
▁hời	-12.2725
▁hiên	-12.2725
▁ngao	-12.2726
EN	-12.2728
▁TVB	-12.2737
▁Wimbledon	-12.2743
▁crossover	-12.2743
▁xói	-12.2743
▁Venice	-12.2743
▁Media	-12.2744
▁Tao	-12.2751
▁Tiếc	-12.2752
▁thiền	-12.2759
iềng	-12.276
Tân	-12.2764
stream	-12.2767
▁Fernandes	-12.2767
▁Toshiya	-12.2767
▁quậy	-12.2767
▁ngùng	-12.2767
▁Pique	-12.277
▁1.1	-12.279
▁Schalke	-12.2791
▁NXB	-12.2791
▁Nations	-12.2791
Messi	-12.2792
Hạ	-12.2796
Cần	-12.2805
ball	-12.2809
▁Toni	-12.2811
▁nhai	-12.2813
rri	-12.2814
▁Airbus	-12.2815
▁Leipzig	-12.2815
▁KCNA	-12.2816
▁ngách	-12.2817
▁Latin	-12.2817
▁Triton	-12.2817
▁Amber	-12.2822
wal	-12.2827
▁PR	-12.2829
▁nhún	-12.2836
▁720	-12.2839
▁trũng	-12.2839
▁CNTT	-12.2839
▁bọ	-12.2846
sel	-12.2846
▁tơi	-12.2851
▁đẽ	-12.2856
▁nạo	-12.2859
Viet	-12.2866
vua	-12.2869
▁XL	-12.2876
chia	-12.2885
eva	-12.2888
▁ngẫm	-12.2888
▁Metro	-12.2888
đều	-12.2888
Phó	-12.2891
▁Đôn	-12.2894
▁Khiết	-12.2894
Dự	-12.2898
▁Greg	-12.2901
ester	-12.2903
▁vun	-12.2904
▁gạ	-12.2907
▁Paraguay	-12.2911
▁Hull	-12.2912
▁Modi	-12.2915
RE	-12.2916
▁Fin	-12.2916
▁IP	-12.2921
▁1977	-12.2921
▁THAAD	-12.2925
▁30.000	-12.2931
board	-12.2932
▁Benjamin	-12.2936
▁heroin	-12.2936
▁Cấm	-12.2936
▁House	-12.2936
Điếu	-12.2936
▁Of	-12.2937
enny	-12.2937
▁1.500	-12.2944
Thành	-12.2945
Lâm	-12.2949
Tiền	-12.2949
▁Lincoln	-12.296
bố	-12.296
▁nhòa	-12.2961
augh	-12.2963
bảo	-12.2965
▁chắp	-12.2965
▁bươ	-12.2972
-29	-12.2976
▁Đo	-12.2977
▁Tower	-12.2984
ness	-12.2985
▁GLC	-12.2987
80.000	-12.2988
về	-12.2992
▁UFC	-12.2993
▁Kaka	-12.3001
chết	-12.3005
▁sộ	-12.3008
▁Tillerson	-12.3009
▁Blanc	-12.3011
▁Soo	-12.3015
nhỉnh	-12.3015
iúp	-12.3017
die	-12.3017
moto	-12.3019
▁Nova	-12.3021
▁xù	-12.3028
▁Xiao	-12.3033
▁Norwich	-12.3033
▁Trại	-12.3034
cũng	-12.3035
▁nách	-12.3046
▁Dĩnh	-12.3047
▁3/1	-12.3051
ted	-12.3052
ADIZ	-12.3058
▁Aaron	-12.3058
▁Kristen	-12.3058
▁Mộng	-12.3064
▁cưỡi	-12.3082
▁Ramsey	-12.3082
▁Rojo	-12.3083
-2017	-12.3084
CLB	-12.3085
▁sục	-12.3086
eiro	-12.3098
▁Bashar	-12.3107
▁Valverde	-12.3107
▁Wembley	-12.3107
PSG	-12.3113
▁Trùng	-12.3113
▁Elon	-12.3118
▁Cohen	-12.3133
▁Trừ	-12.3135
▁thệ	-12.3136
ẵng	-12.3137
▁mỉa	-12.3139
▁Cáo	-12.3144
▁3/6	-12.3155
▁Bernard	-12.3157
▁dỏm	-12.3157
▁gớm	-12.3157
ĐH	-12.316
rùm	-12.3161
▁(33	-12.3176
▁Sabeco	-12.3182
▁Thỉnh	-12.3182
▁Clark	-12.3182
Drive	-12.3183
▁Zalo	-12.3184
▁mép	-12.3185
▁Reed	-12.319
▁Test	-12.3196
▁Gói	-12.3207
▁Stefan	-12.3207
▁Plaza	-12.3207
▁PCR	-12.3215
▁#	-12.3219
ogo	-12.3221
▁Sean	-12.3221
4,5	-12.3231
▁AirPods	-12.3231
▁Hearthstone	-12.3231
▁Massachusetts	-12.3231
▁Dominic	-12.3232
3,4	-12.3232
▁Cross	-12.3232
dù	-12.3247
hừng	-12.3253
▁RB	-12.3258
thực	-12.3264
▁Tượng	-12.3265
▁0,3	-12.3268
hệ	-12.3282
▁GPLX	-12.3282
▁Low	-12.3289
Bản	-12.3295
▁5-6	-12.33
fin	-12.3302
AFC	-12.3303
Phú	-12.3303
▁PUBG	-12.3307
▁Giàu	-12.3307
▁Sóng	-12.3307
▁Bruce	-12.3307
▁Motors	-12.3317
▁Pop	-12.3329
▁Rihanna	-12.3332
▁Thaco	-12.3332
▁sào	-12.3335
đoạn	-12.3336
diễn	-12.3339
▁31/7	-12.3339
vai	-12.3341
▁2.5	-12.3345
8.000	-12.3356
▁bướu	-12.3357
▁Jacob	-12.3357
▁Willian	-12.3358
▁Biến	-12.3362
đứng	-12.3363
Vua	-12.3369
hara	-12.3372
▁Nico	-12.3374
ense	-12.3374
▁thuô	-12.3376
▁Bulgaria	-12.3383
▁Elantra	-12.3383
▁Trudeau	-12.3383
▁Steam	-12.3384
UAE	-12.3386
▁1/2020	-12.3387
4,7	-12.3392
▁3/2	-12.3392
▁15/3	-12.3403
▁Battle	-12.3408
▁marketing	-12.3408
▁ngợp	-12.3408
▁múi	-12.3408
▁FAT	-12.3409
▁Ngộ	-12.341
▁rình	-12.341
▁23/7	-12.3411
tổng	-12.3412
▁xòe	-12.3434
▁Hỏi	-12.3434
▁bở	-12.3436
▁25/5	-12.3452
▁Cty	-12.3456
▁Abdul	-12.3459
▁Blizzard	-12.3459
▁Delaware	-12.3459
▁Ethiopia	-12.3459
▁Lazada	-12.3459
▁Southgate	-12.3459
▁HTX	-12.3459
▁Rain	-12.3461
▁7/1	-12.3462
3,7	-12.3469
▁VNCB	-12.3471
thông	-12.3475
▁Harvey	-12.3485
▁Đoòng	-12.3485
▁Doãn	-12.3486
▁10/10	-12.3488
▁Kris	-12.3493
▁chắt	-12.3494
vũ	-12.3495
▁gô	-12.35
ose	-12.35
3,8	-12.3503
▁High	-12.3506
oài	-12.3509
▁Antoine	-12.3511
▁Manhattan	-12.3511
▁nhúng	-12.3514
▁Line	-12.3514
▁Prix	-12.3514
bạn	-12.3515
tạm	-12.3515
llar	-12.3533
▁Cambridge	-12.3536
▁Kobani	-12.3536
▁Philadelphia	-12.3536
▁Poroshenko	-12.3536
▁RAM	-12.3543
▁Bell	-12.3546
Hội	-12.3547
▁20/10	-12.3547
hoa	-12.3553
125	-12.3554
▁Juve	-12.3557
▁911	-12.356
▁gameshow	-12.3562
▁Terra	-12.3566
7.000	-12.3567
▁huyệt	-12.3568
▁Hunt	-12.3569
quê	-12.357
hua	-12.3574
Ja	-12.3585
▁Accord	-12.3588
▁Singh	-12.359
▁nilon	-12.359
cây	-12.3593
▁ghe	-12.36
▁18/3	-12.3607
▁Flor	-12.3609
▁PVC	-12.361
▁Mịch	-12.3614
▁nặc	-12.3618
60.000	-12.3623
▁Yoon	-12.3637
▁Aleppo	-12.364
▁concept	-12.364
▁Kanye	-12.364
▁KHÔNG	-12.364
▁xoăn	-12.3641
▁Island	-12.3641
Hành	-12.3643
▁chội	-12.3644
▁Đế	-12.3644
▁26/7	-12.3652
sát	-12.3656
▁6/8	-12.3661
▁Ramadi	-12.3667
▁Castro	-12.3667
Nguyễn	-12.3671
đàn	-12.3674
▁Sher	-12.3674
▁Loạ	-12.3675
▁khă	-12.3675
▁Anton	-12.3677
Chuyện	-12.3682
▁Romel	-12.3688
▁Senkaku	-12.3693
▁Vancouver	-12.3693
▁Tiger	-12.3694
▁nhấp	-12.3698
vùng	-12.3698
▁1971	-12.37
▁Dị	-12.3708
▁114	-12.3708
▁Tích	-12.371
▁trĩ	-12.3711
▁chưởng	-12.3721
▁sầm	-12.3723
hee	-12.3724
▁Mưu	-12.3726
▁Reus	-12.3734
▁Brooklyn	-12.3745
▁Nhược	-12.3745
▁Tỉ	-12.3746
▁15/4	-12.3756
▁2024	-12.3758
▁rành	-12.3759
▁3,6	-12.3765
huyết	-12.3768
Petrolimex	-12.3771
▁Lingard	-12.3771
▁Trailer	-12.3771
▁Chiêm	-12.3771
▁PLA	-12.3777
▁rát	-12.3777
Video	-12.3777
▁voan	-12.3786
▁Hôn	-12.3786
▁3,2	-12.3788
ssen	-12.3795
▁Belarus	-12.3798
▁Bluetooth	-12.3798
5,5	-12.3805
▁Jeon	-12.3808
▁4/5	-12.3811
▁nè	-12.3815
▁lă	-12.3818
Sao	-12.3819
▁Rick	-12.382
uff	-12.3821
▁Javier	-12.3824
/2008	-12.3824
▁Hassan	-12.3824
▁sói	-12.3824
rich	-12.3826
▁Gucci	-12.3826
▁2,1	-12.3827
▁Cruiser	-12.3827
Trên	-12.383
đơn	-12.383
▁Cara	-12.3833
▁chài	-12.3835
Xe	-12.3839
▁Bia	-12.384
▁tủy	-12.3846
AIDS	-12.3847
dal	-12.3849
▁Cardiff	-12.3851
▁súp	-12.3851
▁Novak	-12.3853
▁dấn	-12.3855
▁14/2	-12.3856
▁chát	-12.3858
▁Zing	-12.3869
▁2013-2014	-12.3878
▁Algeria	-12.3878
▁Viktor	-12.3878
isha	-12.3882
▁Dịp	-12.3883
▁Brand	-12.3884
sửa	-12.3889
Cái	-12.3891
▁xoá	-12.3901
▁Carr	-12.3911
bal	-12.3919
FTA	-12.392
▁tấc	-12.3931
▁môtô	-12.3931
amba	-12.3942
▁9/1	-12.3942
shima	-12.3945
▁Buồn	-12.3945
▁Masan	-12.3948
3,3	-12.3957
▁Henderson	-12.3958
%),	-12.3968
350	-12.3978
▁Hinh	-12.3981
tiếp	-12.3982
▁Brendan	-12.3985
▁Gonzalo	-12.3985
▁Depay	-12.3985
▁Boston	-12.3986
▁Mattis	-12.3986
UBND	-12.3992
Thiên	-12.3996
▁Yas	-12.4
nhưng	-12.4003
▁Mậu	-12.4012
▁31/3	-12.4017
▁4/6	-12.4017
▁0-4	-12.402
▁điếu	-12.4022
▁1967	-12.4023
▁mị	-12.4033
▁Allianz	-12.4039
▁Gunnar	-12.4039
▁Melbourne	-12.4039
▁Keane	-12.404
▁Ferr	-12.4047
▁chừ	-12.4049
rườm	-12.4054
▁Sâm	-12.4064
▁Halloween	-12.4066
▁Pierre	-12.4066
▁chocolate	-12.4066
▁Nhiếp	-12.4067
▁Fadil	-12.4071
PO	-12.4071
▁Light	-12.4075
▁Anne	-12.4076
▁sắn	-12.4076
▁16/3	-12.4083
▁Hoe	-12.4084
▁rơm	-12.4085
▁15/10	-12.4086
▁gỏi	-12.4094
▁NGUY	-12.4094
▁dầm	-12.4097
▁Tuệ	-12.4099
nói	-12.4102
sey	-12.4103
4,6	-12.4107
▁28/7	-12.4107
▁giỏ	-12.411
▁sán	-12.4113
▁Golden	-12.4113
cầu	-12.412
▁Alvaro	-12.4121
▁Vettel	-12.4121
mẹ	-12.4121
▁Flores	-12.4123
▁giỗ	-12.4123
▁9/3	-12.4126
▁phiệt	-12.4128
▁đò	-12.4128
vàng	-12.4129
2.000	-12.4132
▁quế	-12.4136
lee	-12.4141
▁Bieber	-12.4148
▁CNBC	-12.4148
▁EVFTA	-12.4148
▁HNX	-12.415
▁Chiêu	-12.4165
9.000	-12.4166
▁17/7	-12.4171
▁Dembele	-12.4176
▁Samuel	-12.4176
▁nguôi	-12.4176
▁rúng	-12.4176
▁Totti	-12.4176
illo	-12.4182
llah	-12.4183
▁thuyên	-12.4183
▁chạc	-12.4188
DOC	-12.4196
Cá	-12.4197
Captain	-12.4203
▁Petersburg	-12.4203
▁Premium	-12.4203
▁phượt	-12.4204
▁gội	-12.4207
chính	-12.4211
▁Đâu	-12.4211
▁Amy	-12.4221
ngoài	-12.4228
▁Renault	-12.4231
Didier	-12.4231
▁Huang	-12.4233
▁lẫm	-12.4236
-31	-12.4237
▁mớ	-12.4238
▁30/7	-12.424
▁Nguyê	-12.4241
kể	-12.4249
▁Isuzu	-12.4259
▁Seattle	-12.4259
▁sẩy	-12.4259
▁teaser	-12.4259
▁General	-12.4259
▁NBC	-12.4265
▁Cast	-12.4268
▁dance	-12.4269
▁phào	-12.4271
Khánh	-12.4271
▁trớ	-12.4272
Nói	-12.4274
▁Naga	-12.4276
▁ĐN	-12.4285
▁Raptor	-12.4286
▁99%	-12.4294
ava	-12.4298
▁tít	-12.4301
▁Đổ	-12.4308
pon	-12.4313
▁Columbia	-12.4314
▁Emmanuel	-12.4314
▁Scholes	-12.4314
▁Yonhap	-12.4314
▁Alaska	-12.4314
▁Mancini	-12.4314
▁trót	-12.4314
▁65%	-12.4315
▁Kante	-12.4315
▁Vision	-12.4315
▁nghé	-12.4324
▁10/4	-12.4324
▁căm	-12.4325
▁lút	-12.4332
▁Arabia	-12.4336
▁Hor	-12.4339
▁Angelababy	-12.4342
▁McGregor	-12.4342
▁dẫu	-12.4343
▁Yeo	-12.4346
▁hăm	-12.4346
▁13/11	-12.435
cậu	-12.4351
▁Kla	-12.4358
▁Sầm	-12.4358
Lần	-12.4365
▁Piaggio	-12.437
▁penalty	-12.437
▁sững	-12.437
▁biếm	-12.4373
▁15/5	-12.4379
▁30/1	-12.4384
▁Indo	-12.4386
▁liêu	-12.4389
▁Lanka	-12.439
▁Bond	-12.4396
▁PPP	-12.4398
▁Mơ	-12.44
▁nhô	-12.4401
▁15/6	-12.4413
▁dìu	-12.4414
▁20/7	-12.4417
nhiều	-12.4419
chống	-12.442
Chamberlain	-12.4427
▁Ronaldinho	-12.4427
▁yểm	-12.4427
▁14/4	-12.4429
▁MLS	-12.4433
▁Vol	-12.4445
iệc	-12.4448
Bây	-12.4451
▁khang	-12.4453
▁ZTE	-12.4455
▁guitar	-12.4455
▁Fabio	-12.4455
Gọi	-12.4458
▁hích	-12.4459
▁hực	-12.446
Ngoài	-12.4464
▁hất	-12.4466
▁vớ	-12.4466
Chắc	-12.4467
▁Mắt	-12.4467
ẫu	-12.4473
mark	-12.4474
▁Marcos	-12.4474
▁Isaac	-12.4483
thế	-12.4486
Malaysia	-12.4493
▁Naka	-12.4494
▁15/9	-12.4504
▁Dal	-12.4504
▁22/7	-12.4505
▁Cooper	-12.4512
▁Idlib	-12.4512
▁Cạnh	-12.4512
▁Foley	-12.4512
▁Nô	-12.4513
▁Para	-12.4514
▁giấm	-12.4515
ej	-12.4518
▁Ander	-12.452
Nhìn	-12.4521
Game	-12.4525
▁vó	-12.453
rick	-12.454
▁Sturridge	-12.454
▁Telecom	-12.454
▁kén	-12.454
▁Chạy	-12.454
▁trầy	-12.4545
▁gắp	-12.4546
Series	-12.455
▁Ngo	-12.4552
▁VAT	-12.4553
▁mía	-12.4556
▁Julian	-12.4557
▁Dra	-12.4557
▁Off	-12.456
▁Wave	-12.4561
Kết	-12.4566
▁Vé	-12.4566
▁Nụ	-12.4568
Spurs	-12.4569
▁Central	-12.4569
▁Claudio	-12.4569
▁Joachim	-12.4569
▁Olivier	-12.4569
▁Overwatch	-12.4569
▁streamer	-12.4569
▁Jesse	-12.4569
▁truyê	-12.4571
▁hoă	-12.4571
Sở	-12.4573
bên	-12.4579
hỗ	-12.4586
▁Fri	-12.4592
vào	-12.4592
▁7/6	-12.4594
▁Scarlett	-12.4597
▁Sheffield	-12.4597
▁phượng	-12.4598
▁Thiều	-12.4599
▁Chó	-12.4604
▁ABC	-12.4606
▁Mala	-12.4606
▁31/5	-12.4607
▁nạc	-12.4611
▁7/5	-12.4611
Tóm	-12.4613
▁nhảnh	-12.4614
▁Mito	-12.4617
▁tớ	-12.462
▁Drogba	-12.4626
▁ĐTQG	-12.4626
▁CAND	-12.4626
▁Bọn	-12.4628
▁25/1	-12.4628
▁lìa	-12.4636
▁băm	-12.4637
đến	-12.4643
zone	-12.4651
▁găm	-12.4651
▁850	-12.4652
▁21/7	-12.4652
▁Powell	-12.4655
hợp	-12.4658
▁cặn	-12.4662
etti	-12.4662
▁981	-12.4663
▁0,4	-12.4664
Đắk	-12.4665
▁Dườ	-12.4665
▁29/7	-12.4667
Vấn	-12.4674
▁đờ	-12.4676
thiếu	-12.468
▁Calisto	-12.4684
▁Princess	-12.4684
▁ĐBSCL	-12.4684
▁xỏ	-12.4691
▁rãnh	-12.4692
▁kit	-12.47
biến	-12.47
▁Mich	-12.4702
hiệp	-12.4703
▁2020-2025	-12.4713
▁Business	-12.4713
▁poster	-12.4713
▁gara	-12.4719
▁vạt	-12.4721
lô	-12.4722
▁Nhâm	-12.4723
▁nhĩ	-12.4725
▁Mèo	-12.4727
▁Eto	-12.4731
▁Lẽ	-12.4734
▁Nhựt	-12.4742
▁Techcombank	-12.4742
▁vươ	-12.4743
▁giăng	-12.4744
▁Cub	-12.4748
▁Oman	-12.4765
▁Thang	-12.477
▁Đẹp	-12.4771
▁Johansson	-12.4771
▁Filip	-12.4771
VCCI	-12.4771
▁Julie	-12.4772
▁SVĐ	-12.4773
▁chuốt	-12.4774
cháy	-12.4782
▁Nhì	-12.4783
chặt	-12.4788
▁nghiền	-12.4793
▁Khăn	-12.4796
▁Tunisia	-12.48
▁thẳm	-12.48
▁Junior	-12.48
▁Philip	-12.48
▁SCIC	-12.4801
Thần	-12.4814
▁10-15	-12.4816
▁29/9	-12.4818
▁Universal	-12.4829
▁Camera	-12.483
▁sải	-12.4833
phe	-12.4838
▁1962	-12.484
NATO	-12.4841
Giải	-12.4841
▁20-30	-12.4843
Trail	-12.4846
▁10/6	-12.4849
▁Dũ	-12.4854
▁Hernandez	-12.4859
▁Vincent	-12.4859
▁gộp	-12.4859
▁tennis	-12.4859
▁offline	-12.4859
▁HĐTV	-12.4859
▁Time	-12.486
▁Joon	-12.4862
FBI	-12.4871
Covid	-12.4871
▁Thác	-12.4871
▁Jer	-12.4885
▁Khoá	-12.4887
▁Bangladesh	-12.4888
▁Nintendo	-12.4888
▁Beach	-12.4888
▁MAX	-12.4888
▁Nâng	-12.4888
4,8	-12.489
▁Mái	-12.4893
▁Laden	-12.4896
▁1966	-12.4899
▁10/3	-12.491
ườm	-12.4912
lex	-12.4912
▁Nguyện	-12.4918
▁Pelosi	-12.4918
▁ngợm	-12.4918
▁Ivanovic	-12.4918
▁Jenner	-12.4919
Giành	-12.4919
▁Phường	-12.492
▁1969	-12.493
Còn	-12.493
▁Scarborough	-12.4948
▁Flynn	-12.4948
▁cừu	-12.4948
▁Duty	-12.4953
hậu	-12.4955
▁Đời	-12.4955
VPF	-12.496
▁nhuệ	-12.4962
▁boy	-12.4963
New	-12.4964
thường	-12.4966
▁15.000	-12.4968
▁Tế	-12.4977
700	-12.4977
▁Thẻ	-12.4981
▁9/4	-12.4986
đả	-12.4999
ricio	-12.5002
▁Đèn	-12.5007
▁ngượng	-12.5008
▁20/3	-12.5009
xê	-12.5022
NQ	-12.5022
▁Nho	-12.5026
▁Fort	-12.5036
▁Oliver	-12.5037
▁Pixel	-12.5037
▁Smalling	-12.5037
▁crôm	-12.5037
▁sệt	-12.5041
Brazil	-12.505
quốc	-12.5051
▁Bru	-12.5059
▁13/2	-12.5068
▁Malaga	-12.5068
▁Warner	-12.5068
▁líu	-12.507
▁CNC	-12.507
ẫy	-12.5071
▁Đốc	-12.5075
▁CBS	-12.508
7,8	-12.508
box	-12.5081
Phần	-12.5081
phòng	-12.5082
▁Liễu	-12.5097
▁Platini	-12.5097
▁Tevez	-12.5097
▁xuyến	-12.5097
▁webgame	-12.5098
▁link	-12.5103
▁Kem	-12.511
bìa	-12.5111
Kim	-12.5112
uýt	-12.5112
▁28/2	-12.5115
▁27/4	-12.5115
▁28/8	-12.5117
Mục	-12.5121
▁DiCaprio	-12.5128
▁Anderson	-12.5128
▁Trust	-12.5131
▁Yaya	-12.5136
▁Nào	-12.5136
▁rốn	-12.5138
▁Stan	-12.5139
▁mịt	-12.514
Cà	-12.5144
▁rêu	-12.5149
ghế	-12.5151
▁Phái	-12.5155
▁Chrome	-12.5158
▁Olympia	-12.5158
▁đùng	-12.5158
▁phuộc	-12.5159
▁Sporting	-12.5161
▁xiết	-12.5163
▁25/2	-12.5164
▁nực	-12.5167
▁1958	-12.5169
lượt	-12.5175
bằng	-12.5176
lade	-12.5178
5,6	-12.5182
▁card	-12.5185
▁Jaguar	-12.5188
▁rịch	-12.5188
▁Jerome	-12.5188
▁Gerard	-12.5189
▁Guardian	-12.5191
▁Shah	-12.5192
▁Thuý	-12.5193
kinh	-12.5195
▁Oai	-12.5197
▁11/8	-12.5218
▁Graham	-12.5219
▁Holdings	-12.5219
▁Pirlo	-12.5219
▁Blind	-12.5219
▁Phẫu	-12.5219
Vũ	-12.5227
UY	-12.523
Trận	-12.5233
Đường	-12.5238
▁diva	-12.5239
▁Lisbon	-12.5249
▁Slovakia	-12.5249
▁Irma	-12.5249
▁Panama	-12.5249
▁Hugo	-12.5252
▁đực	-12.526
▁cằm	-12.5262
Real	-12.5263
▁Bosnia	-12.528
▁Cháy	-12.528
▁PlayStation	-12.528
▁Taliban	-12.528
HoREA	-12.528
▁Thanks	-12.5281
▁Trầm	-12.5282
▁Mobi	-12.5285
cướp	-12.5294
▁24/5	-12.5302
▁Valentin	-12.5307
▁Levante	-12.5311
▁Resort	-12.5311
▁Janeiro	-12.5311
anne	-12.5313
▁giở	-12.5317
Sha	-12.5323
▁29/5	-12.5325
phản	-12.5325
enberg	-12.5332
hồi	-12.534
▁Senegal	-12.5342
▁bặm	-12.5342
▁NVX	-12.5342
▁kìa	-12.5342
▁Trãi	-12.5343
▁Golf	-12.5343
▁hằn	-12.5343
thua	-12.5345
▁Trươ	-12.5358
kova	-12.5359
▁11/3	-12.5369
▁Abraham	-12.5373
▁ươm	-12.5373
▁Wolf	-12.5373
▁Lima	-12.5377
hạnh	-12.538
Brien	-12.538
▁24/3	-12.5387
Đúng	-12.5388
tài	-12.5388
▁Kerr	-12.54
▁Maguire	-12.5404
▁Mumbai	-12.5404
▁ngậy	-12.5404
▁cẳng	-12.5404
▁TNOL	-12.5404
▁Jared	-12.5404
▁diều	-12.5407
▁12/8	-12.5407
▁mứt	-12.5409
▁MSI	-12.5415
▁Pala	-12.5415
QH	-12.5416
▁Rex	-12.5417
▁Infantino	-12.5435
▁Jimmy	-12.5435
▁2017-2018	-12.5436
▁Heard	-12.5438
▁thét	-12.544
▁cồng	-12.5441
▁KCN	-12.5445
▁Khiếu	-12.5447
▁Sào	-12.5448
▁Hới	-12.5451
▁cent	-12.5464
Avengers	-12.5466
▁2012-2013	-12.5466
▁Austin	-12.5466
▁Explorer	-12.5466
▁Hollyhock	-12.5466
▁Vuitton	-12.5466
▁Ảrập	-12.5466
▁DVD	-12.5466
▁check	-12.5471
▁Gió	-12.5474
▁Love	-12.5491
▁rèm	-12.5497
▁Kenya	-12.5499
ngoại	-12.5513
▁Sàn	-12.5523
▁Espanyol	-12.5529
▁Center	-12.5529
Max	-12.5531
▁Hugh	-12.5531
▁dẫm	-12.5531
Đêm	-12.5545
▁húc	-12.5549
▁Bella	-12.556
▁Furious	-12.556
▁Liberty	-12.556
▁Origi	-12.556
▁hormone	-12.556
▁Storm	-12.556
▁Lahm	-12.5561
▁Siro	-12.5561
ÔNG	-12.5565
▁ngổ	-12.5565
▁23/4	-12.5567
Vụ	-12.5567
▁1964	-12.5572
▁Lisa	-12.5572
#	-12.5576
▁Chanathip	-12.5592
▁Dustin	-12.5592
▁Ghost	-12.5592
▁Hilux	-12.5592
▁Murphy	-12.5592
▁Alaba	-12.5592
▁vuột	-12.5592
▁Busan	-12.5593
eller	-12.56
▁bẽ	-12.561
Nước	-12.5616
▁Morrison	-12.5624
▁Nancy	-12.5624
▁Shakhtar	-12.5624
▁Tayyip	-12.5624
▁chĩa	-12.5624
▁Khổng	-12.5624
▁Corp	-12.5628
giết	-12.563
▁Latinh	-12.5631
▁Trend	-12.5631
▁Cờ	-12.5641
▁chừa	-12.5641
▁toạ	-12.5646
▁Best	-12.5649
▁Turk	-12.5656
▁rục	-12.5659
▁Đầm	-12.5661
▁Wild	-12.5662
hoạt	-12.5675
▁rợ	-12.5675
▁Peskov	-12.5688
▁Snapdragon	-12.5688
▁núp	-12.5688
▁Kamala	-12.5688
▁Crossover	-12.5688
kết	-12.5689
đấng	-12.5689
▁Basel	-12.569
▁Hotel	-12.569
▁Joong	-12.5694
Báo	-12.5699
▁múc	-12.5699
▁30/3	-12.5702
▁23/3	-12.5707
BTC	-12.5716
▁Sharapova	-12.572
▁ATGT	-12.572
▁Garden	-12.572
▁Denis	-12.5724
▁nhóc	-12.5725
▁Sochi	-12.5727
▁Mode	-12.573
Cứ	-12.5736
nguy	-12.5745
▁Ahmed	-12.5752
▁Christina	-12.5752
▁Muangthong	-12.5752
▁VLTK	-12.5752
▁Neville	-12.5752
▁Zoom	-12.5753
▁30/5	-12.5765
made	-12.5768
▁Ngươ	-12.577
amine	-12.5772
ÂN	-12.5773
▁Buriram	-12.5784
▁Lacazette	-12.5784
group	-12.5784
▁ói	-12.5785
▁NAM	-12.5798
biệt	-12.5807
Mặc	-12.5808
▁22/4	-12.5815
▁Atlanta	-12.5816
▁Charlotte	-12.5816
▁Craig	-12.5816
▁UNESCO	-12.5816
Maybach	-12.5817
▁Nhập	-12.582
▁Ibra	-12.582
▁Fair	-12.5824
Cố	-12.5836
Yêu	-12.5841
▁13/7	-12.5845
Bước	-12.5846
▁Festival	-12.5849
▁Luận	-12.5849
▁Forester	-12.5849
Thằng	-12.5849
▁AMD	-12.5854
etz	-12.5862
vượt	-12.5869
đấu	-12.5872
evic	-12.5876
3,9	-12.5879
▁Ahmad	-12.5881
▁Cahill	-12.5881
▁Iowa	-12.5881
▁crop	-12.5881
▁úng	-12.5882
▁Zhu	-12.5885
▁Box	-12.5886
▁Xăng	-12.5889
▁31/10	-12.5889
▁quất	-12.589
▁Clip	-12.5891
Indonesia	-12.59
▁Dark	-12.5903
▁TNGT	-12.5911
▁Spider	-12.5914
chuyên	-12.5914
5,8	-12.5915
▁Thiệu	-12.5916
▁dột	-12.5918
▁Lake	-12.5919
▁lèo	-12.5924
▁Thà	-12.5924
▁1963	-12.5928
stone	-12.593
▁mương	-12.5938
▁Chư	-12.5939
▁25/8	-12.5943
▁Dakota	-12.5947
▁Lombardy	-12.5947
▁Rakitic	-12.5947
▁mẩu	-12.5947
▁studio	-12.5947
▁Bổ	-12.5947
▁ngoãn	-12.5947
▁Force	-12.5949
▁TTCP	-12.595
▁Biện	-12.5961
▁Toà	-12.5961
▁Philipp	-12.5979
▁AstraZeneca	-12.598
▁Focus	-12.598
▁Irina	-12.598
▁giftcode	-12.598
▁thẹn	-12.598
ICM	-12.6003
aheem	-12.6007
▁Điê	-12.6007
▁Football	-12.6013
▁sài	-12.6013
▁Kathy	-12.6013
▁Legends	-12.6017
▁Kali	-12.6021
▁Elly	-12.6022
▁Neil	-12.6023
▁Master	-12.6029
Chelsea	-12.6032
▁13/3	-12.6032
Khu	-12.604
▁22/5	-12.6043
▁Bolivia	-12.6046
▁vẩn	-12.6046
▁Lựa	-12.6046
▁Eriksen	-12.6046
▁xiếc	-12.6048
▁22/10	-12.605
Quả	-12.6051
▁22/3	-12.6063
kWh	-12.6065
▁27/8	-12.6067
▁24/2	-12.6072
▁lùn	-12.6076
▁Boateng	-12.6079
▁Britney	-12.6079
▁Douglas	-12.6079
▁Galatasaray	-12.6079
▁Lindsay	-12.6079
▁Nixon	-12.6079
▁Wallace	-12.6079
▁2014-2015	-12.608
-2018	-12.608
▁12/3	-12.608
fra	-12.6082
hoon	-12.6083
▁Đảm	-12.6084
250	-12.6092
▁26/2	-12.6097
NHNN	-12.6099
▁Mira	-12.6101
▁Stad	-12.6104
▁Grande	-12.6107
Long	-12.6111
▁ngửi	-12.6112
▁nhện	-12.6112
▁nín	-12.6113
▁Robot	-12.6113
▁17/2	-12.6115
ấ	-12.6118
▁xở	-12.6122
▁2026	-12.6127
đó	-12.613
▁Cris	-12.6135
▁nhích	-12.6136
▁Dijk	-12.6146
▁Futsal	-12.6146
▁Hebdo	-12.6146
▁India	-12.6146
▁Kình	-12.6153
ườn	-12.6178
IRGC	-12.6179
▁Huddersfield	-12.6179
▁baht	-12.618
▁body	-12.618
▁thiều	-12.6185
▁Yếu	-12.6186
Lạ	-12.6186
▁GPS	-12.6188
▁McG	-12.6192
trung	-12.6205
▁Jane	-12.6209
▁Marie	-12.621
▁Cuomo	-12.6213
▁Sadio	-12.6213
▁LCD	-12.6213
▁Aviv	-12.6213
▁model	-12.6214
▁Kyle	-12.6214
chân	-12.622
▁SKT	-12.6227
8,3	-12.6233
Tàu	-12.6234
Quân	-12.6235
▁1.3	-12.6236
chồng	-12.6244
▁tì	-12.6249
▁xốp	-12.6251
var	-12.6253
soung	-12.6267
bá	-12.6274
4,9	-12.6278
▁Marawi	-12.6281
▁Pajero	-12.6281
▁poly	-12.6281
▁Kids	-12.6282
▁Xoài	-12.6282
▁Khmer	-12.6283
dân	-12.6287
▁gỉ	-12.6289
▁nhũ	-12.6305
▁Larry	-12.6315
▁2015-2020	-12.6317
▁rocket	-12.6317
báo	-12.6326
▁Fall	-12.6326
▁Josh	-12.6335
Bóng	-12.6336
7,6	-12.6337
lột	-12.6346
&#192;	-12.6349
▁Foxconn	-12.6349
▁Trailblazer	-12.6349
▁Ericsson	-12.6349
▁14/5	-12.635
▁quăng	-12.6354
▁chơ	-12.6358
▁Soul	-12.6362
▁25/3	-12.6364
▁sáo	-12.6369
kỳ	-12.6377
▁CPTPP	-12.6383
▁Outlander	-12.6383
▁Niê	-12.6384
▁dứa	-12.6386
▁Quất	-12.6386
▁26/3	-12.6398
▁gán	-12.6402
Vietnam	-12.6406
hộp	-12.6409
▁Health	-12.6418
▁Lopetegui	-12.6418
▁Mandzukic	-12.6418
▁Pokemon	-12.6418
/2007	-12.6418
▁sùng	-12.6418
▁Giêng	-12.6418
▁Hamburg	-12.6419
▁Chặ	-12.6419
SDF	-12.6421
3.000	-12.6422
▁Challenge	-12.6452
▁Netanyahu	-12.6452
▁Moses	-12.6452
▁Cyber	-12.6453
▁Paolo	-12.6454
▁Iron	-12.6464
▁1954	-12.6465
▁Beck	-12.6469
▁Andres	-12.6471
▁17/3	-12.6474
▁gởi	-12.6487
▁khuynh	-12.6487
▁Moore	-12.6488
town	-12.6489
▁nhỡ	-12.6492
wick	-12.6499
▁Kara	-12.6502
Chưa	-12.6509
đạo	-12.6512
▁Cruyff	-12.6521
▁Ghebreyesus	-12.6521
▁Hilton	-12.6521
▁Limited	-12.6521
▁nấc	-12.6521
▁Akira	-12.6521
▁sụn	-12.6524
▁Triết	-12.6526
▁sò	-12.6556
▁CSKA	-12.6556
▁Celerio	-12.6556
▁Toronto	-12.6556
▁Vietravel	-12.6556
▁Vinaconex	-12.6556
▁Owen	-12.6556
CAS	-12.6559
▁hoóc	-12.6559
▁rầu	-12.6561
Fed	-12.6562
▁hễ	-12.6565
▁Ever	-12.657
▁Beat	-12.6579
Lý	-12.6587
▁Gateway	-12.6591
▁rậm	-12.6591
▁Ghana	-12.6591
▁Stephanie	-12.6592
▁Loà	-12.6593
▁Susan	-12.6597
lợi	-12.6614
Nhân	-12.6615
▁Howard	-12.6626
▁Krông	-12.6626
▁short	-12.6626
▁Volvo	-12.6627
▁Midu	-12.6629
▁27/3	-12.6637
▁29/6	-12.6644
▁26/6	-12.6646
Đá	-12.6649
▁Marine	-12.6654
▁Hudson	-12.6661
▁Research	-12.6661
▁Vietinbank	-12.6661
ngôi	-12.6685
▁Lượ	-12.6685
▁Ward	-12.6688
▁Canberra	-12.6697
▁Hemsworth	-12.6697
▁Khuyến	-12.6697
▁National	-12.6697
▁Sebastian	-12.6697
▁Seltos	-12.6697
▁Zotye	-12.6697
▁marathon	-12.6697
▁Riedl	-12.6697
▁quặc	-12.6699
▁31/1	-12.6705
▁Chăn	-12.672
▁Girls	-12.6732
▁Shangri	-12.6732
▁East	-12.6745
▁31/8	-12.6746
Cướp	-12.6752
8,7	-12.6753
SLNA	-12.6756
đây	-12.6763
Mùa	-12.6766
▁Collins	-12.6768
▁ĐTLA	-12.6768
▁Yangon	-12.677
▁Thiệt	-12.6771
▁Vital	-12.6771
bão	-12.6796
▁Bamboo	-12.6804
▁Bartomeu	-12.6804
▁Peugeot	-12.6804
▁lỏi	-12.6804
▁comment	-12.6804
▁Gạo	-12.6813
losed	-12.6839
▁Journal	-12.6839
▁MOBA	-12.6839
▁Wanda	-12.6842
▁nhạo	-12.6844
hênh	-12.687
▁Cologne	-12.6875
▁Hollande	-12.6875
▁piano	-12.6875
▁Touch	-12.6875
▁Leeds	-12.6877
▁ngáo	-12.6881
BioNTech	-12.6912
▁Knight	-12.6912
PBOC	-12.6912
▁Wonder	-12.6913
▁Vlog	-12.6922
Chiếc	-12.6938
▁2.500	-12.6944
thương	-12.6946
▁Nghỉ	-12.6948
▁Wilshere	-12.6948
▁ngầu	-12.6951
▁29/10	-12.6969
view	-12.6971
▁Tomahawk	-12.6984
▁mướt	-12.6984
9,7	-12.6986
▁Theron	-12.6991
▁vầy	-12.6999
6,2	-12.7
▁Troussier	-12.7021
▁TSMC	-12.7022
▁Vinson	-12.7023
▁Quê	-12.7029
hơi	-12.7032
▁teo	-12.7037
Thử	-12.7045
▁Alfred	-12.7057
▁CMND	-12.7057
▁Lloris	-12.7057
▁Patriot	-12.7057
▁Phoenix	-12.7057
▁Stewart	-12.7057
-2016	-12.7058
▁Masa	-12.706
▁ĐNA	-12.7064
▁vần	-12.7073
▁27/5	-12.7076
bảng	-12.709
▁Bosque	-12.7094
▁Stockholm	-12.7094
▁Control	-12.7094
▁radio	-12.7094
▁dượng	-12.7096
▁uyển	-12.7097
▁Allen	-12.7099
dale	-12.7113
▁Elle	-12.7117
ICBM	-12.7121
girl	-12.7121
2,5%	-12.7127
▁Mobifone	-12.7131
▁Rượu	-12.7131
▁Santiago	-12.7131
▁WhatsApp	-12.7131
▁Cesc	-12.7131
▁UBKT	-12.7132
▁nắn	-12.7138
▁28/3	-12.7143
▁29/8	-12.7151
địa	-12.7158
mọi	-12.7158
▁rươ	-12.7165
▁Avanza	-12.7168
▁Deportivo	-12.7168
▁ballad	-12.7168
▁Torino	-12.7168
Activ	-12.7173
▁Nhâ	-12.7178
▁ngừ	-12.7186
UAV	-12.7195
▁oi	-12.7196
Vĩnh	-12.7199
▁Oceanbank	-12.7205
▁SYM	-12.7205
▁Sunny	-12.7205
nhấc	-12.7205
▁Romero	-12.7208
▁IPC	-12.7212
▁Răng	-12.7216
UNCLOS	-12.7233
Khoản	-12.7233
việc	-12.7234
▁Couture	-12.7242
▁gọt	-12.7245
▁Nicole	-12.7246
▁FPS	-12.7246
▁Jamaica	-12.728
▁cữu	-12.728
▁chùi	-12.728
▁Hornet	-12.728
▁logic	-12.728
▁Yaris	-12.7281
▁Thám	-12.7281
-2015	-12.7282
7,7	-12.7287
▁26/5	-12.7298
▁hẻo	-12.7317
▁fair	-12.7317
▁BLV	-12.7318
▁Hwang	-12.7318
▁Indiana	-12.7318
▁blog	-12.7322
▁Adhanom	-12.7355
▁Jetstar	-12.7355
DMZ	-12.7356
▁Monte	-12.737
▁quệ	-12.737
UEFA	-12.7384
cứu	-12.7384
▁Lauren	-12.7392
▁Charlize	-12.7393
▁Bradley	-12.7395
▁Alcantara	-12.7431
▁Getafe	-12.7431
▁Medvedev	-12.7431
▁Thận	-12.7431
▁Engine	-12.7431
▁Batman	-12.7431
▁1/500	-12.7433
▁Rice	-12.7443
Made	-12.7451
roll	-12.7463
Florentino	-12.7469
▁Cameroon	-12.7469
▁Icardi	-12.7469
▁Illinois	-12.7469
▁Kuwait	-12.7469
▁Rouhani	-12.7469
▁Baltic	-12.747
▁Goldman	-12.7471
▁Water	-12.7472
▁Chốt	-12.7474
▁hũ	-12.7477
trụ	-12.7488
▁Estonia	-12.7508
▁Gangwon	-12.7508
▁Vatican	-12.7508
▁Uyển	-12.7509
▁nail	-12.751
▁Helen	-12.7511
▁Diaz	-12.7513
▁Kiển	-12.7514
ucci	-12.754
▁Alexandre	-12.7546
▁tợn	-12.7546
▁Miếu	-12.7547
▁thiếp	-12.7549
▁Bún	-12.7553
▁Julia	-12.7563
▁Parma	-12.7564
▁Java	-12.7576
▁Esports	-12.7585
▁Shanghai	-12.7585
▁Shinawatra	-12.7585
▁Standard	-12.7585
▁Evra	-12.7585
▁VPCP	-12.7585
▁Emily	-12.7585
nơi	-12.7616
▁Fanpage	-12.7623
▁Fantasy	-12.7623
▁Hector	-12.7623
▁Watson	-12.7623
▁Yongbyon	-12.7623
▁Vọng	-12.7623
▁tuộc	-12.7626
▁thặng	-12.763
▁Lille	-12.763
hỏa	-12.7653
Canada	-12.7654
loại	-12.7657
▁Chiellini	-12.7662
▁Switch	-12.7662
▁Dennis	-12.7662
▁Jeju	-12.7663
▁Merlo	-12.7664
▁Gaza	-12.7668
▁Francois	-12.7669
▁Patric	-12.767
▁God	-12.7671
Sport	-12.7699
droxychloroquine	-12.7701
▁Muhammad	-12.7701
▁bủa	-12.7701
▁blue	-12.7701
▁Legend	-12.7735
vẫn	-12.7738
▁Oppo	-12.7754
▁tộ	-12.7767
hòa	-12.7771
Singapore	-12.7772
vòng	-12.7777
▁Bavaria	-12.778
▁Hybrid	-12.778
▁Odyssey	-12.778
▁McDonald	-12.778
▁SIM	-12.778
7,4	-12.7802
mund	-12.7809
▁rả	-12.7814
▁Grammy	-12.7819
▁remdesivir	-12.7819
▁England	-12.782
style	-12.782
▁Travel	-12.7821
▁People	-12.7859
▁ngẩm	-12.7859
▁sạp	-12.7859
hụp	-12.7861
6,3	-12.7868
▁Messenger	-12.7899
▁OLED	-12.7899
▁Oklahoma	-12.7899
▁chòi	-12.7899
▁1.200	-12.79
▁BĐVN	-12.7901
▁dặt	-12.7902
0054	-12.7907
▁rạc	-12.7934
▁Navibank	-12.7939
▁Nicholas	-12.7939
athan	-12.7944
▁mướn	-12.797
▁Soluto	-12.7979
▁Square	-12.7979
▁Tiếu	-12.798
Ngôi	-12.8013
▁Brexit	-12.802
▁HDBank	-12.802
chứ	-12.802
Nhuệ	-12.8029
Arsenal	-12.8053
đặt	-12.8056
▁Quỳ	-12.8058
▁Aegis	-12.806
▁Celtic	-12.806
▁Hiroshima	-12.806
▁Jeremy	-12.806
▁Merseyside	-12.806
▁Robbie	-12.806
▁Slovenia	-12.806
▁Tuchel	-12.806
▁uranium	-12.806
▁Nhện	-12.806
▁cạp	-12.806
▁Valve	-12.8068
CSIS	-12.8085
xuất	-12.8094
▁BLHS	-12.8101
▁Mnuchin	-12.8101
▁VPBank	-12.8101
▁hydro	-12.8101
▁thoi	-12.8101
▁Bravo	-12.8102
▁Tuất	-12.8105
▁tuâ	-12.8127
▁Marwijk	-12.8141
FIFA	-12.8176
▁Felipe	-12.8182
▁Kompany	-12.8182
▁Ladakh	-12.8182
▁Maruti	-12.8182
▁Mirage	-12.8183
▁phộng	-12.8184
▁ngă	-12.8184
▁giẫm	-12.8184
▁Luang	-12.8185
oãn	-12.8195
Đả	-12.8201
://	-12.8212
▁Virgin	-12.8223
▁Composite	-12.8224
▁SpaceX	-12.8224
▁Fury	-12.8225
▁Nasdaq	-12.8265
▁Đẩy	-12.8265
▁Fidel	-12.8266
▁Sonata	-12.8266
ngốn	-12.8267
▁Gede	-12.8268
▁Quí	-12.8273
cial	-12.8287
▁Coupe	-12.8306
▁Lockheed	-12.8306
▁Mahrez	-12.8306
▁Miguel	-12.8306
▁Nimitz	-12.8306
▁Olympiakos	-12.8306
▁Pablo	-12.8306
▁Silver	-12.8306
▁Vinfast	-12.8306
6,4	-12.8335
Cháu	-12.8343
▁NutiFood	-12.8348
▁Paralympic	-12.8348
▁Radam	-12.8348
-2011	-12.835
▁Full	-12.8351
▁0,8	-12.8351
▁Sachs	-12.839
▁DAB	-12.839
▁oai	-12.839
▁Cesar	-12.8391
▁xèo	-12.8394
▁Minsk	-12.8428
▁2020-2021	-12.8432
▁Jeffrey	-12.8432
▁Mascherano	-12.8432
▁Betis	-12.8432
▁Đính	-12.8432
▁Micro	-12.8433
▁2015-2016	-12.8433
▁30-40	-12.8435
live	-12.8441
Vậy	-12.8469
▁Hiddink	-12.8474
▁Luxury	-12.8474
8,8	-12.851
▁Campbell	-12.8517
▁Guinea	-12.8517
▁startup	-12.8517
▁opera	-12.8517
▁Granada	-12.8517
8,4	-12.8534
20.000	-12.8546
▁Curacao	-12.8559
▁Ducati	-12.8559
▁Yahoo	-12.8559
▁Carrick	-12.856
▁Vincom	-12.856
▁Lotte	-12.8567
▁Trâ	-12.859
▁Oregon	-12.8602
▁shipper	-12.8602
▁Hicks	-12.8602
rizio	-12.8602
▁Detroit	-12.8645
▁ECMO	-12.8645
▁Massim	-12.8645
▁Mendes	-12.8645
▁ngưởng	-12.8647
▁Kashmir	-12.8688
▁Woodward	-12.8688
▁Branson	-12.8688
▁http	-12.8688
▁Dallas	-12.8688
▁Ibrahim	-12.8731
▁Navarro	-12.8731
▁Siberia	-12.8731
▁giỡn	-12.8731
▁Spark	-12.8731
▁Zaha	-12.8731
▁Milner	-12.8732
sản	-12.8739
90.000	-12.8749
nhiệm	-12.8771
máy	-12.8771
▁Abdullah	-12.8775
▁Hummels	-12.8775
▁hỉnh	-12.8775
▁Assassin	-12.8775
▁with	-12.8775
▁Rachel	-12.8775
▁Sunni	-12.8786
quân	-12.8816
▁ESPN	-12.8818
▁Khedira	-12.8818
▁Khẩn	-12.8818
▁Ralph	-12.8818
▁Wawrinka	-12.8818
▁thót	-12.8818
▁Garena	-12.8819
▁Thierry	-12.882
▁Adidas	-12.8862
▁Chauvin	-12.8862
▁Mikhail	-12.8862
▁Riyad	-12.8862
▁pastel	-12.8862
▁DNNN	-12.8862
▁cợt	-12.8862
▁Friday	-12.8862
▁Sepp	-12.8864
Viettel	-12.8903
▁Affleck	-12.8906
▁Confederation	-12.8906
▁Lallana	-12.8906
▁Yanukovych	-12.8906
▁Epic	-12.8906
▁kali	-12.8906
▁Hanoi	-12.8907
▁Amanda	-12.8907
▁Elite	-12.8908
▁Schmeichel	-12.895
▁Silicon	-12.895
▁Otto	-12.895
khỉ	-12.8951
▁uý	-12.8953
Búp	-12.8954
▁Carrie	-12.8972
▁Yoshi	-12.8978
Phương	-12.8994
▁Bologna	-12.8995
▁Hoffenheim	-12.8995
▁Album	-12.8995
▁Eibar	-12.8995
▁Síp	-12.8995
tùy	-12.9037
▁Nikkei	-12.9039
▁Ukraina	-12.9039
▁flagship	-12.9039
▁Eddie	-12.904
▁Walsh	-12.904
▁Bloom	-12.9084
▁Cadillac	-12.9084
▁Kaesong	-12.9084
▁Kagawa	-12.9084
▁Sedona	-12.9084
▁Barbara	-12.9129
▁Formosa	-12.9129
▁Monchengladbach	-12.9129
▁Yoshihide	-12.9129
▁NPH	-12.9129
▁Gianlu	-12.9129
▁TMĐT	-12.9129
Philippines	-12.9173
quyền	-12.9174
▁Essex	-12.9175
▁Heynckes	-12.9175
▁MINI	-12.9175
▁Navara	-12.9175
▁Nhiễm	-12.9175
▁Nhựa	-12.9175
▁Okinawa	-12.9175
Kylian	-12.9175
▁garage	-12.9175
Cười	-12.9196
▁Shadow	-12.922
▁Insider	-12.922
▁MacBook	-12.922
▁Sampdoria	-12.922
▁Yasuo	-12.922
▁console	-12.922
▁ĐTVN	-12.9222
Hơn	-12.9264
▁rouble	-12.9266
▁oải	-12.9266
▁blogger	-12.9266
▁Ngạo	-12.9267
chuyển	-12.931
Bên	-12.9311
▁Biegun	-12.9312
▁wifi	-12.9312
▁khuỷu	-12.9312
▁Jobs	-12.9312
▁Nemanja	-12.9358
▁Thaksin	-12.9358
▁hecta	-12.9358
▁Đuống	-12.9358
3,6	-12.9375
Liverpool	-12.9403
▁Albania	-12.9404
▁Fernandinho	-12.9404
▁Hezbollah	-12.9404
▁Salvador	-12.9404
▁Savills	-12.9404
▁ekip	-12.9404
▁Shiite	-12.9405
▁Wanbi	-12.9406
ault	-12.9435
▁luyê	-12.9449
▁Aleksand	-12.9451
▁Birmingham	-12.9451
▁Dhabi	-12.9451
▁Verona	-12.9451
▁sùi	-12.9451
▁Naomi	-12.9451
▁sên	-12.9451
▁hãn	-12.9489
▁Giuliani	-12.9497
▁Ngụy	-12.9497
▁Nutifood	-12.9497
▁Tennessee	-12.9497
▁giùm	-12.9497
▁cõng	-12.9497
▁xố	-12.9498
▁Ngoan	-12.9499
truyền	-12.9544
▁4-3-3	-12.9544
▁Tiffany	-12.9544
▁vedette	-12.9544
▁single	-12.9544
▁Matteo	-12.9545
▁BQT	-12.9546
2,7	-12.956
5,9	-12.958
▁Dzeko	-12.9591
▁Margaret	-12.9591
▁Narendra	-12.9591
▁Qassem	-12.9591
▁Werner	-12.9591
▁Genoa	-12.9591
▁hợt	-12.9591
▁rụt	-12.9591
▁lõm	-12.9591
đêm	-12.9592
▁Utah	-12.9592
▁First	-12.9611
▁0,9	-12.9619
▁Allardyce	-12.9639
▁Clasico	-12.9639
▁Sapporo	-12.9639
▁Wilmington	-12.9639
▁Igor	-12.9639
▁tởm	-12.9639
hãy	-12.9684
▁2016-2021	-12.9686
▁Cullinan	-12.9686
▁Gonzalez	-12.9686
▁Koscielny	-12.9686
▁Kyrgios	-12.9686
▁McConnell	-12.9686
▁WADA	-12.9686
▁Worldometers	-12.9686
▁Classic	-12.9687
▁Bernie	-12.9687
Tuyển	-12.9688
young	-12.9691
▁Nghê	-12.9701
▁Kawasaki	-12.9734
▁Pearl	-12.9735
8,9	-12.9777
▁Little	-12.9782
▁Upcom	-12.9782
▁Ngạn	-12.9782
▁Walmart	-12.9782
Italy	-12.9783
đưa	-12.9783
Phòng	-12.9784
▁Bưởi	-12.9831
▁Digital	-12.9831
▁Huracan	-12.9831
▁Mohammad	-12.9831
▁nịnh	-12.9831
▁Stegen	-12.9831
Giọ	-12.9834
Hoàn	-12.9877
▁Brooks	-12.9879
▁denim	-12.9879
▁zoom	-12.9879
▁Ethan	-12.9879
▁Varane	-12.9879
▁buốt	-12.988
Dịch	-12.9881
Hiệp	-12.9881
▁Spirit	-12.9928
▁System	-12.9928
▁Vienna	-12.9928
▁jumpsuit	-12.9928
▁Derek	-12.9928
▁Ernest	-12.9928
Quyết	-12.993
▁Bakr	-12.9931
9,3	-12.9975
▁Anonymous	-12.9977
▁huỳnh	-12.9977
▁Nhổn	-12.9977
▁lụi	-12.9977
▁CBRE	-12.9977
▁Stanley	-12.9978
▁Hughes	-12.9978
&#212;	-12.9979
▁Ubisoft	-13.0026
▁billiards	-13.0026
▁mafia	-13.0026
/2004	-13.0026
▁núm	-13.0026
▁Korea	-13.0027
▁Bremen	-13.0027
Toàn	-13.0028
dịch	-13.0028
rạng	-13.0047
rrell	-13.0063
▁Derby	-13.0076
▁Timothy	-13.0076
▁pizza	-13.0076
▁Great	-13.0077
▁2011-2012	-13.0125
▁Copenhagen	-13.0125
▁Bailly	-13.0125
John	-13.0128
▁eSport	-13.017
▁Rimario	-13.0175
▁VnExpress	-13.0175
iliano	-13.0175
▁toilet	-13.0176
Stream	-13.0176
Arnold	-13.0176
NASA	-13.018
▁Attrage	-13.0226
▁Sarajevo	-13.0226
▁FOX	-13.0226
world	-13.0226
▁Warrior	-13.0226
▁Flash	-13.0226
▁Stanford	-13.0226
break	-13.0226
&#194;	-13.0276
▁Abbott	-13.0276
▁Bellerin	-13.0276
▁Busquets	-13.0276
▁Caracas	-13.0276
▁Cleveland	-13.0276
▁KTNN	-13.0276
▁Klose	-13.0276
▁Moreno	-13.0276
▁Gươm	-13.0276
/2006	-13.0276
▁HSBC	-13.0277
▁Albion	-13.0327
▁Heroes	-13.0327
▁khùng	-13.0327
▁mọng	-13.0327
▁Séc	-13.0327
▁Carroll	-13.0327
hỏi	-13.0345
▁Carvajal	-13.0378
▁Casemiro	-13.0378
▁Gotze	-13.0378
▁Schurrle	-13.0378
▁testosterone	-13.0378
▁QPR	-13.0378
▁Sharp	-13.0378
Sài	-13.0382
▁Aquino	-13.0429
▁Catalonia	-13.0429
▁Giuseppe	-13.0429
▁Network	-13.0429
▁salad	-13.0429
Edinson	-13.0429
▁Style	-13.0432
▁Franco	-13.0471
▁Stephan	-13.048
▁Athens	-13.0481
▁Continental	-13.0481
▁GrabBike	-13.0481
▁Kovrig	-13.0481
▁boxing	-13.0481
▁Vidic	-13.0481
▁nẻo	-13.0481
▁Haute	-13.0481
▁class	-13.0481
▁Andersen	-13.0481
▁Abbas	-13.0481
Australia	-13.0485
hóa	-13.0504
Davidson	-13.0522
▁Beirut	-13.0533
▁Financial	-13.0533
▁Middlesbrough	-13.0533
▁Sampaoli	-13.0533
▁Vicente	-13.0533
▁Yazidi	-13.0533
▁Minzy	-13.0533
▁Racing	-13.0533
/2003	-13.0533
▁Investment	-13.0533
▁Francesco	-13.0533
▁Bueno	-13.0533
máu	-13.0538
7,9	-13.0539
9,6	-13.0566
▁Bhutan	-13.0585
▁Immobile	-13.0585
▁LHTN	-13.0585
▁Scolari	-13.0585
▁Vovinam	-13.0585
▁Recep	-13.0585
▁Ghế	-13.0585
▁nhợt	-13.0585
▁Hermes	-13.0585
▁Ricard	-13.0586
hủy	-13.0613
▁Coteccons	-13.0637
▁Russell	-13.0637
▁Udinese	-13.0637
/2005	-13.0637
▁Chạp	-13.0637
▁CÁC	-13.0638
9,8	-13.0638
SARS	-13.0642
kiểm	-13.0642
đợt	-13.0642
▁Alaves	-13.069
▁Cazorla	-13.069
▁Herzegovina	-13.069
▁Himalaya	-13.069
▁Infiniti	-13.069
▁Shaqiri	-13.069
▁Versace	-13.069
▁Virgil	-13.069
▁Xhaka	-13.069
▁Fabian	-13.069
▁Kạn	-13.069
▁PES	-13.069
EEZ	-13.069
▁éo	-13.069
Luật	-13.0695
ặ	-13.5319
ẵ	-13.5349
ắ	-13.6662
ẫ	-14.2546
ầ	-14.582
ẩ	-15.3376
ậ	-15.3377
ằ	-15.3377
